<unk>	0
<s>	0
</s>	0
▁d	-0
▁e	-1
▁l	-2
ue	-3
▁de	-4
▁a	-5
▁s	-6
▁c	-7
os	-8
▁p	-9
er	-10
que	-11
an	-12
as	-13
▁y	-14
▁m	-15
en	-16
▁que	-17
ar	-18
on	-19
▁t	-20
or	-21
es	-22
do	-23
▁h	-24
▁en	-25
▁la	-26
▁n	-27
▁el	-28
▁es	-29
▁v	-30
ra	-31
re	-32
un	-33
ab	-34
al	-35
in	-36
te	-37
ci	-38
▁se	-39
ad	-40
▁con	-41
▁no	-42
ch	-43
to	-44
om	-45
▁su	-46
▁al	-47
▁b	-48
▁los	-49
▁un	-50
is	-51
ta	-52
▁f	-53
ía	-54
▁por	-55
ien	-56
▁o	-57
am	-58
ui	-59
ro	-60
▁g	-61
▁di	-62
jo	-63
le	-64
▁com	-65
di	-66
▁las	-67
▁par	-68
ti	-69
▁le	-70
▁D	-71
▁lo	-72
cho	-73
▁r	-74
la	-75
▁del	-76
lo	-77
▁ha	-78
da	-79
de	-80
ero	-81
▁cu	-82
ás	-83
▁q	-84
▁S	-85
▁me	-86
ón	-87
▁to	-88
▁des	-89
go	-90
ri	-91
ues	-92
▁re	-93
ce	-94
▁si	-95
▁est	-96
ol	-97
us	-98
ando	-99
▁mi	-100
▁mu	-101
▁hab	-102
ado	-103
ier	-104
tr	-105
▁como	-106
bre	-107
▁más	-108
ie	-109
tra	-110
aba	-111
▁San	-112
ada	-113
dos	-114
ir	-115
▁Q	-116
▁so	-117
co	-118
▁una	-119
tes	-120
dad	-121
mo	-122
mp	-123
ué	-124
▁Don	-125
▁Sancho	-126
▁para	-127
uer	-128
▁an	-129
▁sin	-130
ca	-131
tu	-132
za	-133
▁M	-134
▁ser	-135
▁P	-136
▁po	-137
▁Qui	-138
uen	-139
▁yo	-140
ig	-141
▁te	-142
ran	-143
res	-144
▁in	-145
án	-146
jote	-147
▁Quijote	-148
cer	-149
tar	-150
ente	-151
▁tan	-152
▁C	-153
▁j	-154
▁sus	-155
▁ver	-156
cu	-157
tos	-158
il	-159
▁ten	-160
tro	-161
▁qui	-162
▁A	-163
all	-164
▁cab	-165
▁dijo	-166
se	-167
▁vi	-168
▁ni	-169
▁res	-170
én	-171
▁ent	-172
ma	-173
▁mis	-174
▁tu	-175
▁ca	-176
ora	-177
▁man	-178
ba	-179
gu	-180
mos	-181
ces	-182
▁lle	-183
▁E	-184
▁esp	-185
vi	-186
▁señ	-187
enci	-188
▁cas	-189
▁as	-190
los	-191
▁todo	-192
me	-193
ras	-194
▁resp	-195
tas	-196
▁ve	-197
▁porque	-198
▁i	-199
▁pero	-200
era	-201
▁pas	-202
ían	-203
das	-204
▁qué	-205
▁é	-206
dió	-207
▁buen	-208
ia	-209
io	-210
ga	-211
las	-212
▁he	-213
▁pe	-214
▁ar	-215
▁cam	-216
▁Y	-217
ante	-218
gun	-219
▁respon	-220
li	-221
▁ac	-222
ios	-223
▁sal	-224
▁él	-225
▁tra	-226
jos	-227
▁am	-228
ción	-229
▁cor	-230
▁había	-231
▁fue	-232
▁bien	-233
▁pare	-234
▁ap	-235
gar	-236
ter	-237
▁hi	-238
▁L	-239
ino	-240
▁per	-241
▁car	-242
▁así	-243
▁era	-244
▁ven	-245
oso	-246
ve	-247
ja	-248
▁lu	-249
aron	-250
▁men	-251
quel	-252
añ	-253
bi	-254
▁ab	-255
▁cuando	-256
▁respondió	-257
cha	-258
▁todos	-259
iendo	-260
▁aquel	-261
▁caball	-262
der	-263
aban	-264
▁sobre	-265
▁ex	-266
▁li	-267
vo	-268
▁ll	-269
ones	-270
ores	-271
ten	-272
▁hom	-273
ún	-274
▁pr	-275
▁sab	-276
▁pue	-277
▁hay	-278
▁vues	-279
tad	-280
▁esta	-281
cio	-282
▁don	-283
zo	-284
tros	-285
▁cos	-286
qu	-287
▁dej	-288
▁enc	-289
▁gran	-290
▁pa	-291
▁pen	-292
▁esto	-293
ced	-294
cia	-295
▁desp	-296
▁vol	-297
▁ya	-298
▁son	-299
iento	-300
▁has	-301
ul	-302
ber	-303
▁sa	-304
▁nues	-305
▁señor	-306
ver	-307
▁pro	-308
▁fin	-309
ana	-310
dr	-311
quí	-312
▁her	-313
fi	-314
car	-315
dar	-316
▁co	-317
ido	-318
▁ra	-319
ales	-320
si	-321
che	-322
▁muy	-323
ven	-324
▁hacer	-325
ados	-326
▁dos	-327
▁pues	-328
▁mí	-329
cir	-330
uel	-331
um	-332
▁go	-333
erced	-334
▁B	-335
▁R	-336
mente	-337
▁aquí	-338
▁Merced	-339
▁ba	-340
tor	-341
▁decir	-342
ómo	-343
▁comp	-344
▁verdad	-345
tó	-346
bra	-347
jer	-348
▁qu	-349
tras	-350
▁dar	-351
▁donde	-352
▁vo	-353
tado	-354
▁mal	-355
▁vis	-356
▁Dios	-357
▁sino	-358
▁ma	-359
▁all	-360
▁dis	-361
▁ella	-362
ño	-363
tura	-364
▁está	-365
▁entre	-366
je	-367
igo	-368
lan	-369
▁tien	-370
cía	-371
▁este	-372
▁hombre	-373
el	-374
po	-375
▁cie	-376
ías	-377
▁can	-378
▁día	-379
▁pre	-380
▁algun	-381
▁rep	-382
▁vuestra	-383
lar	-384
▁pu	-385
▁cual	-386
▁fuer	-387
▁otro	-388
sa	-389
▁J	-390
▁El	-391
▁or	-392
▁llev	-393
▁ah	-394
▁sí	-395
anza	-396
undo	-397
▁escu	-398
eg	-399
ese	-400
▁ri	-401
bier	-402
eron	-403
▁cal	-404
▁sol	-405
ano	-406
▁na	-407
cen	-408
▁sen	-409
▁pens	-410
▁hasta	-411
▁mo	-412
▁vida	-413
▁mismo	-414
▁T	-415
les	-416
▁os	-417
▁1	-418
▁ro	-419
▁vez	-420
▁estaba	-421
cas	-422
▁tie	-423
qui	-424
ris	-425
eros	-426
adas	-427
▁tam	-428
gua	-429
ros	-430
ura	-431
ués	-432
▁noche	-433
▁tiemp	-434
▁G	-435
ara	-436
zas	-437
▁cre	-438
▁les	-439
▁pie	-440
unque	-441
va	-442
bres	-443
▁imp	-444
▁otra	-445
▁mundo	-446
▁quién	-447
▁caballero	-448
pe	-449
ña	-450
ador	-451
▁cap	-452
▁lleg	-453
▁cielo	-454
na	-455
zón	-456
no	-457
ío	-458
cin	-459
éis	-460
▁deb	-461
▁much	-462
rar	-463
rim	-464
▁sé	-465
▁mon	-466
▁nada	-467
amente	-468
▁tiempo	-469
dor	-470
ría	-471
▁pi	-472
▁ti	-473
▁tal	-474
▁tus	-475
men	-476
tre	-477
▁hu	-478
adre	-479
▁nos	-480
▁pal	-481
▁san	-482
▁soy	-483
ierra	-484
▁medi	-485
00	-486
cos	-487
▁bo	-488
idad	-489
▁and	-490
antes	-491
encia	-492
▁llam	-493
▁eso	-494
▁tom	-495
▁casa	-496
ina	-497
dose	-498
▁cono	-499
▁tanto	-500
▁N	-501
▁antes	-502
▁esper	-503
▁lugar	-504
des	-505
til	-506
▁Du	-507
endo	-508
▁mor	-509
▁sue	-510
▁uno	-511
▁ellos	-512
▁después	-513
so	-514
amos	-515
▁esc	-516
ieron	-517
▁cómo	-518
▁dese	-519
miento	-520
▁Duque	-521
mb	-522
mi	-523
és	-524
den	-525
▁pon	-526
onces	-527
ru	-528
ble	-529
jas	-530
mas	-531
▁du	-532
▁sea	-533
iente	-534
▁H	-535
gún	-536
▁allí	-537
▁poco	-538
▁mujer	-539
ónde	-540
▁Por	-541
▁gra	-542
▁ahora	-543
ión	-544
▁va	-545
▁solo	-546
▁mucho	-547
▁camino	-548
▁V	-549
bién	-550
có	-551
▁Es	-552
▁jun	-553
▁cada	-554
▁cuen	-555
▁muer	-556
▁ojos	-557
▁haber	-558
▁todas	-559
ín	-560
cor	-561
▁ho	-562
▁tor	-563
▁tengo	-564
▁también	-565
ho	-566
tan	-567
bern	-568
iera	-569
▁mej	-570
▁pres	-571
▁toda	-572
▁tenía	-573
cl	-574
▁nue	-575
▁dónde	-576
lig	-577
tal	-578
ñas	-579
▁gu	-580
▁abe	-581
▁cer	-582
▁han	-583
▁encan	-584
▁gobern	-585
▁hermos	-586
▁parece	-587
zar	-588
mbre	-589
▁gus	-590
▁cuán	-591
▁quis	-592
▁dicho	-593
▁menos	-594
fer	-595
ula	-596
▁oí	-597
unca	-598
▁aún	-599
▁val	-600
▁cuer	-601
▁parte	-602
ya	-603
emp	-604
▁En	-605
▁ju	-606
▁ech	-607
▁alma	-608
▁entr	-609
▁mano	-610
▁nunca	-611
▁otros	-612
▁puede	-613
▁tierra	-614
▁entonces	-615
gi	-616
▁aunque	-617
dó	-618
fe	-619
pa	-620
vá	-621
▁I	-622
día	-623
orm	-624
▁his	-625
▁días	-626
▁histor	-627
▁quiero	-628
pi	-629
ere	-630
▁ad	-631
▁ch	-632
▁tú	-633
inos	-634
▁pes	-635
▁pueb	-636
▁Panza	-637
▁hecho	-638
▁mejor	-639
▁tener	-640
can	-641
eho	-642
▁ig	-643
dido	-644
▁bus	-645
▁col	-646
▁luz	-647
ehová	-648
▁podr	-649
▁buena	-650
▁Jehová	-651
jar	-652
ona	-653
▁fe	-654
▁ne	-655
▁ob	-656
dero	-657
empre	-658
▁cosa	-659
▁estu	-660
▁amigo	-661
▁comen	-662
▁contra	-663
▁señora	-664
▁siempre	-665
yo	-666
ren	-667
van	-668
▁añ	-669
ento	-670
esti	-671
▁jus	-672
▁pus	-673
▁vuel	-674
ientos	-675
▁desde	-676
▁enten	-677
▁estos	-678
▁venci	-679
▁nuestro	-680
bo	-681
arse	-682
▁Qué	-683
▁ese	-684
▁hace	-685
▁rico	-686
▁será	-687
ciendo	-688
▁cosas	-689
▁tiene	-690
▁aquella	-691
eza	-692
gra	-693
▁do	-694
bajo	-695
uego	-696
▁pun	-697
▁Pues	-698
▁prim	-699
▁mucha	-700
▁saber	-701
▁visto	-702
▁puesto	-703
ama	-704
▁ir	-705
able	-706
allo	-707
▁fal	-708
▁vio	-709
▁voz	-710
ea	-711
zó	-712
ár	-713
cre	-714
gui	-715
ita	-716
zos	-717
illa	-718
▁Los	-719
▁pos	-720
▁dice	-721
▁vien	-722
almente	-723
▁grande	-724
▁historia	-725
osa	-726
▁La	-727
llas	-728
taba	-729
▁har	-730
▁espe	-731
▁pers	-732
▁quer	-733
ientes	-734
▁palab	-735
▁pueblo	-736
▁F	-737
vir	-738
▁Se	-739
▁mañ	-740
▁rey	-741
▁vos	-742
ciones	-743
▁entra	-744
▁quien	-745
▁habían	-746
▁llegar	-747
ítu	-748
▁ru	-749
▁ade	-750
▁bar	-751
▁for	-752
▁iba	-753
tando	-754
▁apar	-755
▁hizo	-756
▁fuera	-757
▁alguna	-758
▁conten	-759
ció	-760
gos	-761
lor	-762
par	-763
▁fa	-764
▁esa	-765
▁len	-766
▁lib	-767
▁mar	-768
▁may	-769
▁cora	-770
▁repli	-771
▁manera	-772
▁muchas	-773
ur	-774
tir	-775
vió	-776
▁No	-777
dado	-778
▁gen	-779
▁ins	-780
▁voy	-781
▁reci	-782
▁levan	-783
▁compañ	-784
▁hombres	-785
▁escudero	-786
ió	-787
▁O	-788
lla	-789
nos	-790
vos	-791
▁be	-792
▁ci	-793
▁ín	-794
chos	-795
▁dem	-796
▁dio	-797
▁emp	-798
ticia	-799
▁digo	-800
▁luego	-801
▁misma	-802
▁mañana	-803
▁pensam	-804
▁nuestra	-805
du	-806
ís	-807
dra	-808
gen	-809
ria	-810
tán	-811
▁Re	-812
dole	-813
ible	-814
▁Man	-815
▁agu	-816
▁dol	-817
▁Cómo	-818
▁desa	-819
▁guar	-820
▁hall	-821
▁tres	-822
éndose	-823
▁comer	-824
▁inter	-825
▁manos	-826
▁cabeza	-827
▁cuenta	-828
▁gobier	-829
▁nombre	-830
▁corazón	-831
▁estaban	-832
▁replicó	-833
em	-834
rm	-835
omo	-836
▁of	-837
cido	-838
eras	-839
fici	-840
▁Dul	-841
▁bra	-842
▁coa	-843
▁cua	-844
▁nin	-845
▁allá	-846
▁blan	-847
▁corr	-848
▁prop	-849
▁algún	-850
▁estar	-851
▁hijos	-852
▁mayor	-853
osotros	-854
▁capítu	-855
▁natura	-856
▁caballer	-857
bol	-858
dal	-859
ena	-860
gan	-861
omp	-862
ísi	-863
▁Cu	-864
▁ay	-865
rado	-866
▁tar	-867
osque	-868
▁acab	-869
▁conf	-870
▁modo	-871
▁pele	-872
▁otras	-873
▁muchos	-874
▁Duquesa	-875
gas	-876
ill	-877
mor	-878
tis	-879
una	-880
var	-881
▁us	-882
onio	-883
tenci	-884
▁Pero	-885
▁agua	-886
▁amor	-887
▁cons	-888
▁debe	-889
▁vino	-890
▁gusto	-891
▁madre	-892
▁medio	-893
▁Mancha	-894
▁gobernador	-895
ne	-896
cto	-897
dia	-898
gre	-899
rib	-900
tió	-901
ves	-902
lado	-903
tada	-904
trar	-905
▁lar	-906
▁mío	-907
▁íns	-908
▁fues	-909
▁herm	-910
▁tris	-911
▁dejar	-912
▁monte	-913
▁cuerpo	-914
▁volver	-915
▁2	-916
ban	-917
ome	-918
vas	-919
▁pl	-920
cias	-921
cían	-922
emos	-923
enas	-924
inar	-925
▁bas	-926
▁pin	-927
cinea	-928
▁boca	-929
▁excl	-930
▁mira	-931
▁tras	-932
▁llegó	-933
▁poder	-934
▁vesti	-935
▁discre	-936
▁caballo	-937
▁parecer	-938
▁vencido	-939
▁Dulcinea	-940
▁capítulo	-941
ame	-942
eno	-943
▁da	-944
▁tr	-945
adie	-946
▁pla	-947
▁aleg	-948
▁años	-949
▁casi	-950
▁pudo	-951
▁qued	-952
▁veces	-953
▁pregun	-954
bor	-955
gue	-956
ida	-957
rió	-958
▁An	-959
▁fr	-960
▁amo	-961
▁emb	-962
▁hoy	-963
▁ley	-964
▁mad	-965
▁mos	-966
▁oro	-967
▁pan	-968
▁cier	-969
▁cump	-970
▁oscu	-971
▁pros	-972
ándose	-973
▁dicen	-974
▁fuese	-975
▁nadie	-976
▁nuevo	-977
▁razón	-978
▁sangre	-979
ire	-980
jes	-981
vor	-982
cado	-983
▁ref	-984
▁som	-985
▁ter	-986
▁van	-987
▁acer	-988
▁call	-989
▁dado	-990
▁dorm	-991
▁hora	-992
▁suce	-993
dieron	-994
▁bueno	-995
▁calle	-996
▁quier	-997
tamente	-998
▁Aunque	-999
▁lengua	-1000
▁tienen	-1001
▁vuestro	-1002
ud	-1003
▁3	-1004
ias	-1005
▁ár	-1006
anos	-1007
cito	-1008
▁Rey	-1009
▁gan	-1010
▁ima	-1011
▁raz	-1012
▁ros	-1013
tillo	-1014
turas	-1015
▁arro	-1016
▁segu	-1017
▁ellas	-1018
▁gente	-1019
▁morir	-1020
▁padre	-1021
▁árbol	-1022
▁estudi	-1023
▁exclam	-1024
▁hablar	-1025
▁llevar	-1026
▁ningun	-1027
▁podría	-1028
▁ricote	-1029
▁triste	-1030
im	-1031
yó	-1032
▁Á	-1033
uda	-1034
vis	-1035
▁Al	-1036
▁As	-1037
▁pod	-1038
▁sil	-1039
taron	-1040
▁duda	-1041
▁enga	-1042
▁prof	-1043
▁pudi	-1044
▁puer	-1045
▁sabe	-1046
▁abeja	-1047
▁encon	-1048
▁estas	-1049
▁punto	-1050
▁salir	-1051
▁ínsula	-1052
▁delante	-1053
▁gobierno	-1054
▁justicia	-1055
▁finalmente	-1056
cip	-1057
lti	-1058
mer	-1059
usa	-1060
vía	-1061
▁ce	-1062
igos	-1063
rido	-1064
tuga	-1065
▁den	-1066
▁gri	-1067
▁hon	-1068
▁inf	-1069
▁río	-1070
chill	-1071
▁abra	-1072
▁cule	-1073
▁eran	-1074
▁mien	-1075
▁ofre	-1076
▁pasó	-1077
▁sido	-1078
▁descu	-1079
▁deseo	-1080
▁dolor	-1081
▁neces	-1082
▁pecho	-1083
▁verde	-1084
▁buscar	-1085
▁cuatro	-1086
▁hubier	-1087
▁muerte	-1088
▁volvió	-1089
▁tortuga	-1090
▁pensamientos	-1091
ró	-1092
▁ú	-1093
aña	-1094
bas	-1095
cog	-1096
dea	-1097
ito	-1098
vil	-1099
▁De	-1100
▁Yo	-1101
▁af	-1102
▁ol	-1103
iste	-1104
▁der	-1105
▁dul	-1106
▁mue	-1107
▁nar	-1108
▁ocu	-1109
▁rev	-1110
cando	-1111
dores	-1112
▁adel	-1113
▁enem	-1114
▁pies	-1115
▁tran	-1116
▁alcan	-1117
▁corre	-1118
▁están	-1119
▁extra	-1120
▁hacía	-1121
▁labra	-1122
▁segun	-1123
▁suelo	-1124
▁escuch	-1125
▁fueron	-1126
▁fuerza	-1127
▁andante	-1128
▁bachill	-1129
▁grandes	-1130
▁entender	-1131
▁caballeros	-1132
be	-1133
ave	-1134
bir	-1135
bió	-1136
per	-1137
tin	-1138
tud	-1139
ído	-1140
úsi	-1141
▁br	-1142
▁fi	-1143
amás	-1144
endi	-1145
▁Car	-1146
▁bor	-1147
▁fig	-1148
▁hor	-1149
▁hue	-1150
▁mes	-1151
▁rui	-1152
▁vie	-1153
cción	-1154
▁ante	-1155
▁anti	-1156
▁dere	-1157
▁enci	-1158
▁hija	-1159
▁hijo	-1160
▁músi	-1161
▁tuvo	-1162
▁conse	-1163
▁demás	-1164
▁enfer	-1165
▁estre	-1166
▁junto	-1167
▁pobre	-1168
▁podía	-1169
▁según	-1170
▁sueño	-1171
▁traba	-1172
amiento	-1173
tención	-1174
▁quedar	-1175
▁comenzó	-1176
▁aquellos	-1177
▁encantad	-1178
▁mientras	-1179
▁nosotros	-1180
▁nuestros	-1181
ál	-1182
▁4	-1183
bar	-1184
cal	-1185
con	-1186
don	-1187
sos	-1188
áti	-1189
chas	-1190
cios	-1191
gado	-1192
leza	-1193
tido	-1194
udad	-1195
▁Así	-1196
▁cri	-1197
▁efe	-1198
▁mom	-1199
▁sep	-1200
ester	-1201
ficio	-1202
tarse	-1203
untad	-1204
▁admi	-1205
▁aire	-1206
▁algo	-1207
▁aven	-1208
▁edad	-1209
▁haya	-1210
▁pien	-1211
▁pier	-1212
▁puso	-1213
▁sigu	-1214
▁unos	-1215
vieron	-1216
▁campo	-1217
▁hacen	-1218
▁jamás	-1219
▁orden	-1220
▁viene	-1221
▁alguno	-1222
▁espejos	-1223
▁silenci	-1224
▁adelante	-1225
▁palabras	-1226
▁bachiller	-1227
ale	-1228
dan	-1229
eta	-1230
rir	-1231
▁Mi	-1232
▁Ro	-1233
▁jo	-1234
asil	-1235
rero	-1236
vido	-1237
▁100	-1238
▁Mar	-1239
▁dec	-1240
▁hum	-1241
▁igu	-1242
▁lan	-1243
▁sir	-1244
▁vas	-1245
tante	-1246
▁alto	-1247
▁atre	-1248
▁eres	-1249
▁gall	-1250
▁hubo	-1251
▁oído	-1252
▁prin	-1253
▁reme	-1254
▁armas	-1255
▁carne	-1256
▁decía	-1257
▁lejos	-1258
▁quedó	-1259
▁vista	-1260
▁cuándo	-1261
▁muerto	-1262
▁quería	-1263
▁rostro	-1264
▁algunos	-1265
▁culebra	-1266
▁hermosa	-1267
▁momento	-1268
▁trabajo	-1269
▁quisiera	-1270
▁voluntad	-1271
iz	-1272
▁5	-1273
dio	-1274
udo	-1275
áis	-1276
▁pá	-1277
acio	-1278
anto	-1279
uelo	-1280
▁Esp	-1281
▁azo	-1282
▁bel	-1283
▁due	-1284
▁tro	-1285
▁clar	-1286
▁disp	-1287
▁duer	-1288
▁envi	-1289
▁hici	-1290
▁suer	-1291
▁limos	-1292
▁prome	-1293
▁prove	-1294
▁rucio	-1295
▁tales	-1296
▁tanta	-1297
▁vivir	-1298
▁apenas	-1299
▁espada	-1300
▁habéis	-1301
▁quiere	-1302
▁palabra	-1303
▁diciendo	-1304
ré	-1305
gal	-1306
man	-1307
tía	-1308
▁In	-1309
▁Ál	-1310
ondo	-1311
▁Ant	-1312
▁Col	-1313
▁Con	-1314
▁bes	-1315
▁def	-1316
▁din	-1317
▁fie	-1318
▁jui	-1319
▁pad	-1320
▁tob	-1321
rando	-1322
ísimo	-1323
▁capi	-1324
▁cuya	-1325
▁imag	-1326
▁loco	-1327
▁obra	-1328
▁pasa	-1329
▁suel	-1330
▁últi	-1331
asilio	-1332
diendo	-1333
éndole	-1334
▁andar	-1335
▁arras	-1336
▁conci	-1337
▁desen	-1338
▁estoy	-1339
▁fondo	-1340
▁joven	-1341
▁liber	-1342
▁libro	-1343
▁ofici	-1344
▁pasar	-1345
▁poner	-1346
▁puedo	-1347
▁correr	-1348
▁cuales	-1349
▁dentro	-1350
▁dormir	-1351
▁pasado	-1352
▁pensar	-1353
▁pobres	-1354
▁suerte	-1355
▁Antonio	-1356
▁Basilio	-1357
▁conocer	-1358
▁esperar	-1359
▁exclamó	-1360
▁fuerzas	-1361
▁limosna	-1362
▁natural	-1363
▁ninguna	-1364
▁persona	-1365
▁posible	-1366
▁primero	-1367
▁contento	-1368
ge	-1369
mó	-1370
ér	-1371
reg	-1372
yas	-1373
▁Hi	-1374
▁ja	-1375
aste	-1376
bado	-1377
cogi	-1378
daba	-1379
iego	-1380
illo	-1381
onto	-1382
riba	-1383
varo	-1384
▁Mon	-1385
▁chi	-1386
▁cin	-1387
▁dan	-1388
▁neg	-1389
▁rom	-1390
ambre	-1391
dalgo	-1392
moria	-1393
rasco	-1394
teria	-1395
umbre	-1396
▁ador	-1397
▁daba	-1398
▁habr	-1399
▁hier	-1400
▁paso	-1401
▁pena	-1402
▁aguas	-1403
▁consi	-1404
▁donce	-1405
▁favor	-1406
▁hemos	-1407
▁largo	-1408
▁mitad	-1409
▁queda	-1410
▁quiso	-1411
▁ruido	-1412
▁tomar	-1413
▁arriba	-1414
▁bosque	-1415
▁buenos	-1416
▁ciudad	-1417
▁cuánto	-1418
▁dieron	-1419
▁entrar	-1420
▁figura	-1421
▁partes	-1422
▁prosig	-1423
▁quitar	-1424
▁tienes	-1425
▁Álvaro	-1426
▁Hidalgo	-1427
▁capitán	-1428
▁parecía	-1429
▁princip	-1430
▁razones	-1431
▁Carrasco	-1432
▁habiendo	-1433
▁silencio	-1434
▁caballería	-1435
ll	-1436
aso	-1437
año	-1438
drá	-1439
for	-1440
ici	-1441
mar	-1442
min	-1443
són	-1444
▁Pe	-1445
▁Sa	-1446
▁ta	-1447
guas	-1448
migo	-1449
rigo	-1450
tivo	-1451
▁Mis	-1452
▁ahí	-1453
▁cla	-1454
▁juz	-1455
▁lic	-1456
▁sup	-1457
▁tir	-1458
▁vin	-1459
entes	-1460
mento	-1461
ranes	-1462
▁Buen	-1463
▁caer	-1464
▁caso	-1465
▁come	-1466
▁creo	-1467
▁cris	-1468
▁ense	-1469
▁eter	-1470
▁fran	-1471
▁guer	-1472
▁habl	-1473
▁mere	-1474
▁mues	-1475
▁seme	-1476
idades	-1477
ticito	-1478
▁carro	-1479
▁deten	-1480
▁dulce	-1481
▁escri	-1482
▁fuego	-1483
▁impor	-1484
▁miser	-1485
▁pelig	-1486
▁pájar	-1487
▁salió	-1488
▁tarde	-1489
▁venir	-1490
▁venía	-1491
cinante	-1492
iéndose	-1493
▁Tierra	-1494
▁juicio	-1495
▁servir	-1496
▁tenían	-1497
▁toboso	-1498
▁conmigo	-1499
▁hermano	-1500
▁memoria	-1501
▁refranes	-1502
▁coaticito	-1503
▁siguiente	-1504
▁encantadores	-1505
▁6	-1506
aci	-1507
ala	-1508
cur	-1509
dro	-1510
ril	-1511
tró	-1512
uir	-1513
ñor	-1514
▁Me	-1515
▁Pa	-1516
▁au	-1517
▁op	-1518
▁oy	-1519
amor	-1520
ario	-1521
cura	-1522
idos	-1523
inas	-1524
ismo	-1525
tran	-1526
tria	-1527
tuna	-1528
▁Ven	-1529
▁cui	-1530
▁fam	-1531
▁gol	-1532
▁mía	-1533
▁oír	-1534
▁ren	-1535
▁sed	-1536
▁vir	-1537
iones	-1538
taban	-1539
tados	-1540
tidad	-1541
▁Cama	-1542
▁abej	-1543
▁agra	-1544
▁alta	-1545
▁anda	-1546
▁cuyo	-1547
▁cuál	-1548
▁dejó	-1549
▁desh	-1550
▁gana	-1551
▁mara	-1552
▁sola	-1553
adores	-1554
▁acomp	-1555
▁canto	-1556
▁cerca	-1557
▁creer	-1558
▁estás	-1559
▁llama	-1560
▁media	-1561
▁parti	-1562
▁semej	-1563
▁señal	-1564
▁suele	-1565
▁traje	-1566
▁trans	-1567
▁vamos	-1568
▁Bosque	-1569
▁Porque	-1570
▁Sansón	-1571
▁comenz	-1572
▁desper	-1573
▁efecto	-1574
▁estado	-1575
▁huevos	-1576
▁música	-1577
▁piedra	-1578
▁siendo	-1579
▁tantas	-1580
▁tantos	-1581
cimiento	-1582
▁Camacho	-1583
▁cualqui	-1584
▁primera	-1585
▁pudiera	-1586
▁señores	-1587
▁árboles	-1588
▁menester	-1589
▁nuestras	-1590
▁quiteria	-1591
cí	-1592
oj	-1593
pu	-1594
tí	-1595
ól	-1596
▁U	-1597
▁z	-1598
isa	-1599
uso	-1600
uvi	-1601
íos	-1602
▁So	-1603
▁té	-1604
cada	-1605
esen	-1606
ioso	-1607
orio	-1608
▁baj	-1609
▁ele	-1610
▁gar	-1611
▁rec	-1612
▁sac	-1613
▁sos	-1614
chado	-1615
lesia	-1616
▁Greg	-1617
▁acor	-1618
▁murm	-1619
▁olvi	-1620
▁pago	-1621
iencia	-1622
▁Señor	-1623
▁beber	-1624
▁causa	-1625
▁color	-1626
▁condi	-1627
▁cumpl	-1628
▁debía	-1629
▁hacia	-1630
▁oblig	-1631
▁pláti	-1632
▁suces	-1633
▁temer	-1634
ventura	-1635
▁brazos	-1636
▁cierto	-1637
▁contar	-1638
▁enamor	-1639
▁fiebre	-1640
▁impres	-1641
▁pelear	-1642
▁susten	-1643
▁vuelve	-1644
▁abejita	-1645
▁contrar	-1646
▁hubiera	-1647
▁quieren	-1648
▁vestido	-1649
▁Gregorio	-1650
▁intención	-1651
ib	-1652
ús	-1653
cab	-1654
dir	-1655
erv	-1656
gus	-1657
iga	-1658
zca	-1659
úni	-1660
▁Sí	-1661
▁dé	-1662
▁dí	-1663
▁nu	-1664
▁za	-1665
bios	-1666
bras	-1667
ecer	-1668
iese	-1669
itas	-1670
rede	-1671
ritu	-1672
tira	-1673
trás	-1674
▁Las	-1675
▁ape	-1676
▁doy	-1677
▁ens	-1678
▁gor	-1679
▁pol	-1680
▁sig	-1681
▁sop	-1682
▁tes	-1683
cedor	-1684
loria	-1685
talla	-1686
uesta	-1687
viese	-1688
zando	-1689
▁Buda	-1690
▁Cuán	-1691
▁amar	-1692
▁baja	-1693
▁bajo	-1694
▁capa	-1695
▁cara	-1696
▁esos	-1697
▁esti	-1698
▁hubi	-1699
▁poes	-1700
▁rato	-1701
▁sale	-1702
▁seda	-1703
▁tier	-1704
▁tomó	-1705
▁térm	-1706
▁unas	-1707
ración	-1708
▁Reyes	-1709
▁acomo	-1710
▁brazo	-1711
▁camin	-1712
▁costu	-1713
▁deben	-1714
▁echar	-1715
▁entró	-1716
▁espal	-1717
▁golpe	-1718
▁ingen	-1719
▁jaula	-1720
▁libre	-1721
▁nueva	-1722
▁sacar	-1723
▁salud	-1724
▁sepul	-1725
▁tendr	-1726
▁España	-1727
▁abejas	-1728
▁alrede	-1729
▁cristi	-1730
▁debajo	-1731
▁descub	-1732
▁escrib	-1733
▁fuerte	-1734
▁hallar	-1735
▁hambre	-1736
▁juntos	-1737
▁libros	-1738
▁tenido	-1739
▁acompañ	-1740
▁cumplir	-1741
▁fortuna	-1742
▁hermoso	-1743
▁iglesia	-1744
▁llamado	-1745
▁remedio	-1746
▁rocinante	-1747
▁naturaleza	-1748
fa	-1749
gó	-1750
ág	-1751
▁u	-1752
ase	-1753
cel	-1754
cep	-1755
cil	-1756
ine	-1757
mol	-1758
mon	-1759
nor	-1760
pen	-1761
pos	-1762
▁Oh	-1763
▁Si	-1764
▁aj	-1765
▁fu	-1766
anas	-1767
brar	-1768
ches	-1769
dían	-1770
itar	-1771
itos	-1772
lico	-1773
mena	-1774
osos	-1775
umen	-1776
éndo	-1777
▁dig	-1778
▁fir	-1779
▁lig	-1780
▁paz	-1781
▁raí	-1782
▁ron	-1783
▁tur	-1784
dando	-1785
illas	-1786
tadas	-1787
viera	-1788
íritu	-1789
▁Esta	-1790
▁Mira	-1791
▁acon	-1792
▁anam	-1793
▁anim	-1794
▁cari	-1795
▁cuar	-1796
▁daré	-1797
▁detu	-1798
▁diri	-1799
▁echó	-1800
▁esas	-1801
▁esté	-1802
▁limp	-1803
▁menú	-1804
▁país	-1805
▁seis	-1806
▁simp	-1807
▁trom	-1808
▁Quién	-1809
▁abier	-1810
▁acaso	-1811
▁aldea	-1812
▁corte	-1813
▁defen	-1814
▁desdi	-1815
▁engañ	-1816
▁extre	-1817
▁honra	-1818
▁ignor	-1819
▁impos	-1820
▁infin	-1821
▁lleno	-1822
▁lluvi	-1823
▁peque	-1824
▁recor	-1825
▁rique	-1826
▁segui	-1827
▁serán	-1828
▁sería	-1829
▁subir	-1830
▁Mister	-1831
▁contin	-1832
▁conven	-1833
▁cortes	-1834
▁cuento	-1835
▁dejado	-1836
▁deseos	-1837
▁dinero	-1838
▁encima	-1839
▁extran	-1840
▁madera	-1841
▁poesía	-1842
▁pronto	-1843
▁puerta	-1844
▁viendo	-1845
▁vienen	-1846
▁Colmena	-1847
▁interés	-1848
▁licenci	-1849
▁pareció	-1850
▁quieres	-1851
▁entrañas	-1852
▁espíritu	-1853
▁haciendo	-1854
▁libertad	-1855
▁quedaron	-1856
▁esperanza	-1857
▁hermosura	-1858
id	-1859
ni	-1860
ór	-1861
▁7	-1862
asa	-1863
cío	-1864
dez	-1865
esa	-1866
lam	-1867
tua	-1868
tón	-1869
yos	-1870
▁Ay	-1871
▁Ma	-1872
▁bi	-1873
▁ga	-1874
dito	-1875
ilos	-1876
ires	-1877
tigo	-1878
udar	-1879
▁Ent	-1880
▁Mig	-1881
▁año	-1882
▁bui	-1883
▁bur	-1884
▁dor	-1885
▁exp	-1886
▁fru	-1887
▁jue	-1888
▁mez	-1889
▁pec	-1890
▁veo	-1891
ables	-1892
jerci	-1893
reros	-1894
rible	-1895
uerdo	-1896
uesto	-1897
▁acos	-1898
▁añad	-1899
▁cama	-1900
▁cuel	-1901
▁desn	-1902
▁diga	-1903
▁dura	-1904
▁ello	-1905
▁enca	-1906
▁fama	-1907
▁feli	-1908
▁flor	-1909
▁frío	-1910
▁guía	-1911
▁haga	-1912
▁llor	-1913
▁luna	-1914
▁mala	-1915
▁pico	-1916
▁sacó	-1917
▁sean	-1918
▁siti	-1919
▁suje	-1920
▁temp	-1921
▁vale	-1922
tencia	-1923
ándole	-1924
▁Pedro	-1925
▁canón	-1926
▁caído	-1927
▁concl	-1928
▁diver	-1929
▁encar	-1930
▁enter	-1931
▁escog	-1932
▁falta	-1933
▁horas	-1934
▁mandó	-1935
▁obras	-1936
▁podrá	-1937
▁sabía	-1938
vamente	-1939
▁amigos	-1940
▁antigu	-1941
▁blanca	-1942
▁buenas	-1943
▁conver	-1944
▁ejerci	-1945
▁especi	-1946
▁hacían	-1947
▁llaman	-1948
▁miraba	-1949
▁oficio	-1950
▁orilla	-1951
▁patria	-1952
▁querer	-1953
▁seguro	-1954
▁algunas	-1955
▁batalla	-1956
▁caminos	-1957
▁continu	-1958
▁cuidado	-1959
▁dientes	-1960
▁enfermo	-1961
▁guardar	-1962
▁hubiese	-1963
▁resplan	-1964
▁segunda	-1965
▁todavía	-1966
▁Entonces	-1967
▁andantes	-1968
▁castillo	-1969
▁enemigos	-1970
▁gobernar	-1971
▁preguntó	-1972
▁presente	-1973
▁pusieron	-1974
▁vencedor	-1975
▁alrededor	-1976
▁compañero	-1977
▁oficiales	-1978
▁discreción	-1979
▁labradores	-1980
▁licenciado	-1981
▁caballerías	-1982
▁pensamiento	-1983
he	-1984
▁8	-1985
000	-1986
amb	-1987
ece	-1988
eto	-1989
mba	-1990
ram	-1991
ste	-1992
▁15	-1993
▁20	-1994
▁Ju	-1995
▁Un	-1996
▁er	-1997
▁fl	-1998
▁on	-1999
cino	-2000
ctor	-2001
ería	-2002
icor	-2003
roso	-2004
tero	-2005
uras	-2006
ándo	-2007
▁Cas	-2008
▁Que	-2009
▁Sal	-2010
▁ano	-2011
▁beb	-2012
▁bon	-2013
▁cay	-2014
▁dom	-2015
▁fan	-2016
▁fla	-2017
▁gas	-2018
▁lin	-2019
▁mam	-2020
▁mie	-2021
▁nie	-2022
▁rue	-2023
▁sem	-2024
▁sor	-2025
▁suf	-2026
▁úni	-2027
cioso	-2028
dados	-2029
esión	-2030
onado	-2031
ridad	-2032
rique	-2033
tores	-2034
▁Clar	-2035
▁Como	-2036
▁Fran	-2037
▁arre	-2038
▁aten	-2039
▁atra	-2040
▁camp	-2041
▁cayó	-2042
▁diab	-2043
▁haré	-2044
▁leer	-2045
▁ocup	-2046
▁pase	-2047
▁suya	-2048
▁suyo	-2049
▁temb	-2050
▁vive	-2051
umento	-2052
▁Marce	-2053
▁ancho	-2054
▁barba	-2055
▁dando	-2056
▁despe	-2057
▁dijer	-2058
▁hojas	-2059
▁hones	-2060
▁igual	-2061
▁meses	-2062
▁pesar	-2063
▁poeta	-2064
▁sitio	-2065
mientos	-2066
▁Miguel	-2067
▁buitre	-2068
▁chicos	-2069
▁coatis	-2070
▁contes	-2071
▁cuello	-2072
▁desgra	-2073
▁engaño	-2074
▁gentes	-2075
▁labios	-2076
▁letras	-2077
▁lluvia	-2078
▁mandar	-2079
▁padres	-2080
▁pastor	-2081
▁pienso	-2082
▁sancho	-2083
▁venido	-2084
▁virtud	-2085
ciéndole	-2086
▁Ventura	-2087
▁importa	-2088
▁plática	-2089
▁pájaros	-2090
▁canónigo	-2091
▁compadre	-2092
▁compañía	-2093
▁discreto	-2094
▁instante	-2095
▁llegaron	-2096
▁aventuras	-2097
▁condición	-2098
▁contrario	-2099
▁encantado	-2100
▁ingenioso	-2101
fo	-2102
ye	-2103
alo	-2104
bos	-2105
iza	-2106
leg	-2107
olu	-2108
ono	-2109
qué	-2110
sas	-2111
uió	-2112
zan	-2113
zul	-2114
ólo	-2115
▁10	-2116
▁12	-2117
▁Do	-2118
▁Le	-2119
▁Ya	-2120
▁sá	-2121
ance	-2122
cida	-2123
eles	-2124
gada	-2125
idas	-2126
ines	-2127
ques	-2128
rada	-2129
tará	-2130
tien	-2131
ueva	-2132
▁Ana	-2133
▁Isa	-2134
▁ata	-2135
▁bro	-2136
▁cen	-2137
▁dij	-2138
▁hun	-2139
▁ido	-2140
▁ini	-2141
▁mol	-2142
▁pri	-2143
▁sar	-2144
▁tab	-2145
▁tea	-2146
▁ves	-2147
ancia	-2148
ciado	-2149
deros	-2150
fante	-2151
ienta	-2152
remos	-2153
zañas	-2154
▁Cerv	-2155
▁aloj	-2156
▁apos	-2157
▁azul	-2158
▁bail	-2159
▁cima	-2160
▁deja	-2161
▁esca	-2162
▁fies	-2163
▁fres	-2164
▁hues	-2165
▁iban	-2166
▁mens	-2167
▁miel	-2168
▁nego	-2169
▁niño	-2170
▁orig	-2171
▁pied	-2172
▁prue	-2173
▁rela	-2174
▁sois	-2175
▁toma	-2176
▁volv	-2177
bierto	-2178
quidad	-2179
▁Aires	-2180
▁acaba	-2181
▁basta	-2182
▁bendi	-2183
▁cargo	-2184
▁carta	-2185
▁curar	-2186
▁deber	-2187
▁decís	-2188
▁difer	-2189
▁encer	-2190
▁espan	-2191
▁estor	-2192
▁hecha	-2193
▁llevó	-2194
▁pasos	-2195
▁pedir	-2196
▁refer	-2197
▁salva	-2198
▁satis	-2199
▁sazón	-2200
▁servi	-2201
▁silla	-2202
▁sober	-2203
▁suave	-2204
▁tembl	-2205
▁tesor	-2206
▁traía	-2207
▁tumba	-2208
icordia	-2209
▁Buenos	-2210
▁Isaías	-2211
▁anoche	-2212
▁criado	-2213
▁decían	-2214
▁descan	-2215
▁discur	-2216
▁duerme	-2217
▁frente	-2218
▁ganado	-2219
▁gloria	-2220
▁guerra	-2221
▁locura	-2222
▁menudo	-2223
▁mostra	-2224
▁noches	-2225
▁pasaba	-2226
▁raíces	-2227
▁recogi	-2228
▁sentía	-2229
▁trabaj	-2230
▁vecino	-2231
dimiento	-2232
▁Marcela	-2233
▁alegría	-2234
▁aquello	-2235
▁caminar	-2236
▁consejo	-2237
▁cuántos	-2238
▁dejando	-2239
▁derecha	-2240
▁derecho	-2241
▁hazañas	-2242
▁imagina	-2243
▁mujeres	-2244
▁querido	-2245
▁queréis	-2246
▁sentado	-2247
▁espaldas	-2248
▁grandeza	-2249
▁vuestros	-2250
▁Cervantes	-2251
▁cualquier	-2252
▁doncellas	-2253
▁imposible	-2254
▁principio	-2255
▁valientes	-2256
▁conciencia	-2257
▁respondieron	-2258
bu	-2259
dí	-2260
ez	-2261
ír	-2262
▁W	-2263
ard	-2264
bes	-2265
bli	-2266
egr	-2267
igu	-2268
nas	-2269
ped	-2270
por	-2271
tri	-2272
tru	-2273
uce	-2274
ugo	-2275
uma	-2276
vol	-2277
éli	-2278
ída	-2279
ños	-2280
▁Go	-2281
▁lí	-2282
▁án	-2283
▁ór	-2284
amin	-2285
aran	-2286
aras	-2287
arme	-2288
bran	-2289
char	-2290
dura	-2291
enda	-2292
form	-2293
guez	-2294
ices	-2295
icia	-2296
inal	-2297
jero	-2298
once	-2299
resa	-2300
rosa	-2301
tomo	-2302
vier	-2303
▁Des	-2304
▁Tor	-2305
▁bol	-2306
▁caz	-2307
▁cub	-2308
▁dir	-2309
▁min	-2310
▁pap	-2311
▁ras	-2312
▁sel	-2313
▁tem	-2314
▁tin	-2315
▁tri	-2316
ación	-2317
anzas	-2318
ceses	-2319
cidad	-2320
cular	-2321
dente	-2322
gados	-2323
illos	-2324
jeros	-2325
lidad	-2326
rador	-2327
rados	-2328
rante	-2329
terio	-2330
tería	-2331
vedad	-2332
ísima	-2333
▁1000	-2334
▁Doña	-2335
▁Gran	-2336
▁Juan	-2337
▁Rosa	-2338
▁alas	-2339
▁aver	-2340
▁cans	-2341
▁cria	-2342
▁dedo	-2343
▁dejé	-2344
▁form	-2345
▁habi	-2346
▁hara	-2347
▁hués	-2348
▁llen	-2349
▁malo	-2350
▁mand	-2351
▁naci	-2352
▁ocas	-2353
▁plan	-2354
▁pone	-2355
▁real	-2356
▁ropa	-2357
▁seno	-2358
▁somb	-2359
▁toca	-2360
▁velo	-2361
▁verá	-2362
avedra	-2363
quiera	-2364
tantes	-2365
▁abajo	-2366
▁altar	-2367
▁apren	-2368
▁arran	-2369
▁camar	-2370
▁cinco	-2371
▁convi	-2372
▁dices	-2373
▁escon	-2374
▁exten	-2375
▁fuere	-2376
▁grand	-2377
▁inmen	-2378
▁mente	-2379
▁murió	-2380
▁pagar	-2381
▁pelea	-2382
▁penas	-2383
▁pensó	-2384
▁pesad	-2385
▁preci	-2386
▁razon	-2387
▁regal	-2388
olución	-2389
▁aconse	-2390
▁adelan	-2391
▁azotes	-2392
▁bronce	-2393
▁calles	-2394
▁confes	-2395
▁cuanto	-2396
▁cumpli	-2397
▁dirigi	-2398
▁encier	-2399
▁famoso	-2400
▁gentil	-2401
▁habría	-2402
▁hierro	-2403
▁imprim	-2404
▁llamar	-2405
▁pecado	-2406
▁peregr	-2407
▁podían	-2408
▁precio	-2409
▁propia	-2410
▁solici	-2411
▁suceso	-2412
▁suelen	-2413
▁venían	-2414
▁vieron	-2415
▁vuelto	-2416
▁última	-2417
▁Francia	-2418
▁ciencia	-2419
▁dijeron	-2420
▁espacio	-2421
▁extremo	-2422
▁grabado	-2423
▁iguales	-2424
▁jumento	-2425
▁llegado	-2426
▁maravil	-2427
▁mentira	-2428
▁narices	-2429
▁parecen	-2430
▁pasaron	-2431
▁piedras	-2432
▁querían	-2433
▁sentido	-2434
▁Claridad	-2435
▁Mercedes	-2436
▁Saavedra	-2437
▁alcanzar	-2438
▁caballos	-2439
▁elefante	-2440
▁levantar	-2441
▁muchacha	-2442
▁provecho	-2443
▁riquezas	-2444
▁temeroso	-2445
▁valiente	-2446
▁vosotros	-2447
▁costumbre	-2448
▁encontrar	-2449
▁estrellas	-2450
▁franceses	-2451
▁prosiguió	-2452
▁transform	-2453
▁admiración	-2454
▁desdichado	-2455
▁estudiante	-2456
▁verdaderas	-2457
▁entendimiento	-2458
gü	-2459
jó	-2460
ám	-2461
ós	-2462
▁w	-2463
cti	-2464
cul	-2465
cés	-2466
eso	-2467
gir	-2468
ico	-2469
imo	-2470
inc	-2471
ite	-2472
mir	-2473
nes	-2474
oma	-2475
pas	-2476
sim	-2477
tés	-2478
zco	-2479
ósi	-2480
▁Ch	-2481
▁Ni	-2482
▁Te	-2483
▁bl	-2484
▁ví	-2485
▁ye	-2486
aman	-2487
bido	-2488
caba	-2489
cato	-2490
cono	-2491
cípu	-2492
dece	-2493
dera	-2494
erse	-2495
gaba	-2496
ilia	-2497
inch	-2498
jaba	-2499
jada	-2500
lada	-2501
mado	-2502
masi	-2503
orme	-2504
osas	-2505
raba	-2506
rera	-2507
rump	-2508
taré	-2509
tase	-2510
ulas	-2511
unda	-2512
unto	-2513
zaba	-2514
élix	-2515
▁Lab	-2516
▁Paz	-2517
▁Per	-2518
▁Ver	-2519
▁apo	-2520
▁bal	-2521
▁bre	-2522
▁cru	-2523
▁cul	-2524
▁enf	-2525
▁eng	-2526
▁feo	-2527
▁fle	-2528
▁gal	-2529
▁hal	-2530
▁inv	-2531
▁mag	-2532
▁mil	-2533
▁poe	-2534
▁rig	-2535
▁rob	-2536
▁tej	-2537
▁tío	-2538
▁vig	-2539
▁zum	-2540
brado	-2541
caron	-2542
carse	-2543
cerdo	-2544
darse	-2545
decer	-2546
dinar	-2547
egado	-2548
guida	-2549
inión	-2550
lados	-2551
mbres	-2552
móvil	-2553
table	-2554
tilla	-2555
uente	-2556
villa	-2557
ólver	-2558
ósito	-2559
▁Asim	-2560
▁amis	-2561
▁arte	-2562
▁avis	-2563
▁cabo	-2564
▁crey	-2565
▁cues	-2566
▁dama	-2567
▁desc	-2568
▁dime	-2569
▁hago	-2570
▁hará	-2571
▁indi	-2572
▁miró	-2573
▁niña	-2574
▁ofen	-2575
▁peda	-2576
▁pelo	-2577
▁prom	-2578
▁prín	-2579
▁quin	-2580
▁rego	-2581
▁romp	-2582
▁seas	-2583
▁sier	-2584
▁tomé	-2585
▁trae	-2586
▁uste	-2587
amanca	-2588
sación	-2589
▁Diego	-2590
▁Félix	-2591
▁Monte	-2592
▁admir	-2593
▁adorn	-2594
▁calma	-2595
▁comba	-2596
▁condu	-2597
▁darle	-2598
▁darme	-2599
▁devor	-2600
▁dicha	-2601
▁dilig	-2602
▁dueño	-2603
▁enseñ	-2604
▁exper	-2605
▁gallo	-2606
▁gener	-2607
▁habrá	-2608
▁harto	-2609
▁justo	-2610
▁lleva	-2611
▁mando	-2612
▁matar	-2613
▁mendr	-2614
▁menor	-2615
▁mensú	-2616
▁miles	-2617
▁monta	-2618
▁mover	-2619
▁nacer	-2620
▁nubes	-2621
▁pared	-2622
▁plata	-2623
▁repar	-2624
▁repos	-2625
▁reyes	-2626
▁sabes	-2627
▁santo	-2628
▁saqué	-2629
▁temor	-2630
▁testi	-2631
▁traer	-2632
▁viejo	-2633
▁voces	-2634
cípulos	-2635
erables	-2636
▁Montes	-2637
▁amores	-2638
▁animal	-2639
▁cerrar	-2640
▁ciegos	-2641
▁concer	-2642
▁conoce	-2643
▁declar	-2644
▁demasi	-2645
▁derrib	-2646
▁detuvo	-2647
▁entien	-2648
▁flores	-2649
▁imagen	-2650
▁llegan	-2651
▁nuevas	-2652
▁obraje	-2653
▁oscuro	-2654
▁perder	-2655
▁perman	-2656
▁persig	-2657
▁picada	-2658
▁pierna	-2659
▁podido	-2660
▁reales	-2661
▁sabido	-2662
▁seguir	-2663
▁sintió	-2664
▁sombra	-2665
▁suspen	-2666
▁cabrero	-2667
▁consigo	-2668
▁contado	-2669
▁durante	-2670
▁enemigo	-2671
▁entrada	-2672
▁francés	-2673
▁gracias	-2674
▁huésped	-2675
▁inmóvil	-2676
▁llevado	-2677
▁mirando	-2678
▁ninguno	-2679
▁opinión	-2680
▁peligro	-2681
▁pensaba	-2682
▁pueblos	-2683
▁puertas	-2684
▁quebran	-2685
▁recibir	-2686
▁sacerdo	-2687
▁segundo	-2688
▁sucedió	-2689
▁tuviera	-2690
▁Asimismo	-2691
▁antiguos	-2692
▁aquellas	-2693
▁atención	-2694
▁cabreros	-2695
▁contestó	-2696
▁doncella	-2697
▁esperaba	-2698
▁hablando	-2699
▁hicieron	-2700
▁original	-2701
▁revólver	-2702
▁salieron	-2703
▁salvajes	-2704
▁sentenci	-2705
▁siquiera	-2706
▁terrible	-2707
▁términos	-2708
▁vestidos	-2709
▁Salamanca	-2710
▁corriente	-2711
▁enamorado	-2712
▁encantada	-2713
▁enseguida	-2714
▁escuderos	-2715
▁historias	-2716
▁iniquidad	-2717
▁profesión	-2718
▁propósito	-2719
▁solamente	-2720
▁volvieron	-2721
▁comenzaron	-2722
▁compañeros	-2723
▁discípulos	-2724
▁particular	-2725
▁resolución	-2726
▁semejantes	-2727
▁alojamiento	-2728
▁vencimiento	-2729
▁conocimiento	-2730
▁misericordia	-2731
▁Z	-2732
bio	-2733
bro	-2734
drí	-2735
eja	-2736
fas	-2737
fra	-2738
gel	-2739
gía	-2740
ing	-2741
lei	-2742
lle	-2743
mes	-2744
mpa	-2745
pon	-2746
rán	-2747
rón	-2748
uad	-2749
yun	-2750
ómi	-2751
▁Di	-2752
▁Is	-2753
▁Ja	-2754
▁Su	-2755
▁To	-2756
▁fá	-2757
▁mé	-2758
▁oc	-2759
▁ág	-2760
abri	-2761
bada	-2762
blas	-2763
boro	-2764
céis	-2765
dida	-2766
dora	-2767
dugo	-2768
eran	-2769
esón	-2770
gana	-2771
omen	-2772
onas	-2773
peta	-2774
pito	-2775
quis	-2776
sión	-2777
tara	-2778
tica	-2779
tida	-2780
tifi	-2781
tión	-2782
uela	-2783
uera	-2784
zada	-2785
▁Ale	-2786
▁Bus	-2787
▁Cab	-2788
▁Gra	-2789
▁Pal	-2790
▁Pon	-2791
▁Rod	-2792
▁ace	-2793
▁acá	-2794
▁ase	-2795
▁ban	-2796
▁ben	-2797
▁cad	-2798
▁cau	-2799
▁cho	-2800
▁edi	-2801
▁esf	-2802
▁fui	-2803
▁mas	-2804
▁már	-2805
▁oyó	-2806
▁pul	-2807
▁rum	-2808
▁tre	-2809
▁uso	-2810
▁via	-2811
arios	-2812
calde	-2813
derle	-2814
diera	-2815
uelas	-2816
▁aban	-2817
▁adem	-2818
▁afir	-2819
▁anto	-2820
▁asom	-2821
▁cola	-2822
▁coro	-2823
▁cuch	-2824
▁cura	-2825
▁daño	-2826
▁duro	-2827
▁gota	-2828
▁gris	-2829
▁juez	-2830
▁lado	-2831
▁lina	-2832
▁lomo	-2833
▁mani	-2834
▁minu	-2835
▁onda	-2836
▁peso	-2837
▁poca	-2838
▁prud	-2839
▁reun	-2840
▁rien	-2841
▁rode	-2842
▁rosa	-2843
▁sólo	-2844
▁tacu	-2845
▁tono	-2846
▁tuvi	-2847
▁vaya	-2848
▁veía	-2849
▁viva	-2850
▁zapa	-2851
ceptos	-2852
chuelo	-2853
cieron	-2854
dencia	-2855
dumbre	-2856
encias	-2857
tiendo	-2858
▁Mesón	-2859
▁Rodrí	-2860
▁acabó	-2861
▁adver	-2862
▁alfor	-2863
▁altos	-2864
▁apare	-2865
▁arrim	-2866
▁atrás	-2867
▁azote	-2868
▁blusa	-2869
▁cabel	-2870
▁calor	-2871
▁canta	-2872
▁caída	-2873
▁claro	-2874
▁coatí	-2875
▁cocin	-2876
▁contó	-2877
▁daban	-2878
▁debió	-2879
▁derra	-2880
▁desta	-2881
▁desvi	-2882
▁embar	-2883
▁encen	-2884
▁fabri	-2885
▁gordo	-2886
▁halló	-2887
▁incon	-2888
▁juris	-2889
▁lamen	-2890
▁lanza	-2891
▁larga	-2892
▁llena	-2893
▁madru	-2894
▁morib	-2895
▁nidos	-2896
▁oídos	-2897
▁pocos	-2898
▁quise	-2899
▁redon	-2900
▁rendi	-2901
▁saben	-2902
▁senci	-2903
▁serás	-2904
▁señas	-2905
▁sigui	-2906
▁solos	-2907
▁veras	-2908
▁verás	-2909
▁viven	-2910
oración	-2911
umentos	-2912
▁Caball	-2913
▁afuera	-2914
▁alboro	-2915
▁apartó	-2916
▁ayudar	-2917
▁añadió	-2918
▁blanco	-2919
▁cantar	-2920
▁cariño	-2921
▁corres	-2922
▁cuerno	-2923
▁dejaba	-2924
▁desafi	-2925
▁descar	-2926
▁diablo	-2927
▁encuen	-2928
▁eterno	-2929
▁gracia	-2930
▁lanzar	-2931
▁leguas	-2932
▁mismos	-2933
▁mármol	-2934
▁peones	-2935
▁perros	-2936
▁podéis	-2937
▁primer	-2938
▁propio	-2939
▁prueba	-2940
▁pueden	-2941
▁quieto	-2942
▁sabéis	-2943
▁sepulc	-2944
▁teatro	-2945
▁tesoro	-2946
▁vendrá	-2947
▁vuelta	-2948
tamiento	-2949
▁Gracias	-2950
▁Rodrigo	-2951
▁acuerdo	-2952
▁amistad	-2953
▁belleza	-2954
▁cazador	-2955
▁colores	-2956
▁compren	-2957
▁encamin	-2958
▁envidia	-2959
▁hablado	-2960
▁hacerle	-2961
▁lenguas	-2962
▁llegaba	-2963
▁llevaba	-2964
▁muestra	-2965
▁ofreció	-2966
▁paredes	-2967
▁perdido	-2968
▁quisier	-2969
▁romance	-2970
▁servido	-2971
▁Castillo	-2972
▁Labrador	-2973
▁atrevido	-2974
▁buscando	-2975
▁cantidad	-2976
▁confesar	-2977
▁cortesía	-2978
▁cuestión	-2979
▁despacio	-2980
▁entiendo	-2981
▁entreten	-2982
▁estudiar	-2983
▁haragana	-2984
▁mendrugo	-2985
▁pensando	-2986
▁teniendo	-2987
▁tristeza	-2988
▁Rodríguez	-2989
▁corchuelo	-2990
▁criaturas	-2991
▁esperando	-2992
▁interrump	-2993
▁necesario	-2994
▁verdadero	-2995
▁Montesinos	-2996
▁exclamaron	-2997
▁juntamente	-2998
▁pesadumbre	-2999
▁extranjeros	-3000
▁conversación	-3001
▁gobernadores	-3002
ip	-3003
ju	-3004
té	-3005
úm	-3006
alí	-3007
cri	-3008
cus	-3009
dón	-3010
fec	-3011
gle	-3012
ili	-3013
ior	-3014
ivo	-3015
lin	-3016
mio	-3017
mpl	-3018
orn	-3019
pir	-3020
rer	-3021
ton	-3022
tur	-3023
uey	-3024
uis	-3025
uró	-3026
vel	-3027
▁11	-3028
▁16	-3029
▁Ah	-3030
▁Ca	-3031
▁Lo	-3032
▁Mo	-3033
▁Po	-3034
▁Tu	-3035
▁cr	-3036
▁dá	-3037
▁há	-3038
▁pú	-3039
ambo	-3040
ardo	-3041
ares	-3042
bles	-3043
cara	-3044
cera	-3045
ctar	-3046
enti	-3047
esas	-3048
ezas	-3049
game	-3050
gano	-3051
gazo	-3052
gido	-3053
jado	-3054
josa	-3055
loso	-3056
oner	-3057
poco	-3058
quen	-3059
risa	-3060
tall	-3061
tate	-3062
tico	-3063
tosa	-3064
udas	-3065
vuel	-3066
vían	-3067
▁Cor	-3068
▁Jus	-3069
▁Ren	-3070
▁Sim	-3071
▁Sol	-3072
▁Val	-3073
▁acu	-3074
▁ado	-3075
▁ago	-3076
▁apa	-3077
▁cir	-3078
▁cré	-3079
▁cól	-3080
▁dif	-3081
▁dob	-3082
▁dra	-3083
▁dur	-3084
▁eje	-3085
▁eru	-3086
▁flo	-3087
▁fra	-3088
▁gui	-3089
▁inc	-3090
▁lla	-3091
▁núm	-3092
▁obe	-3093
▁ojo	-3094
▁oli	-3095
▁ove	-3096
▁rús	-3097
▁soñ	-3098
▁vea	-3099
araná	-3100
caban	-3101
cinos	-3102
corno	-3103
demos	-3104
denes	-3105
didas	-3106
didos	-3107
diese	-3108
eguir	-3109
endas	-3110
entar	-3111
fecho	-3112
gador	-3113
ganta	-3114
ildea	-3115
jadas	-3116
litar	-3117
mbros	-3118
nidad	-3119
tador	-3120
telig	-3121
ticas	-3122
titos	-3123
trado	-3124
umbra	-3125
undos	-3126
verio	-3127
▁Aten	-3128
▁Inés	-3129
▁abun	-3130
▁acre	-3131
▁alar	-3132
▁apri	-3133
▁apro	-3134
▁arti	-3135
▁ayun	-3136
▁bamb	-3137
▁bols	-3138
▁bote	-3139
▁buey	-3140
▁caus	-3141
▁caña	-3142
▁curi	-3143
▁dici	-3144
▁dire	-3145
▁diré	-3146
▁durm	-3147
▁eleg	-3148
▁empu	-3149
▁enan	-3150
▁enre	-3151
▁faci	-3152
▁fati	-3153
▁grie	-3154
▁here	-3155
▁leña	-3156
▁mamá	-3157
▁mozo	-3158
▁médi	-3159
▁paga	-3160
▁puro	-3161
▁reno	-3162
▁reti	-3163
▁reír	-3164
▁risa	-3165
▁sala	-3166
▁salí	-3167
▁sano	-3168
▁sepa	-3169
▁sorp	-3170
▁tamb	-3171
alidad	-3172
bieron	-3173
ieblas	-3174
riendo	-3175
tación	-3176
tillas	-3177
óstomo	-3178
▁Dónde	-3179
▁Rocío	-3180
▁Santo	-3181
▁abrió	-3182
▁altas	-3183
▁ambos	-3184
▁amena	-3185
▁apres	-3186
▁arroj	-3187
▁ayuda	-3188
▁bella	-3189
▁borra	-3190
▁carca	-3191
▁casar	-3192
▁casas	-3193
▁cerró	-3194
▁comía	-3195
▁conte	-3196
▁darse	-3197
▁desha	-3198
▁domin	-3199
▁dueña	-3200
▁escap	-3201
▁escla	-3202
▁firme	-3203
▁gusta	-3204
▁habla	-3205
▁hayas	-3206
▁hijas	-3207
▁humil	-3208
▁instr	-3209
▁lados	-3210
▁manso	-3211
▁miedo	-3212
▁mirar	-3213
▁modos	-3214
▁moris	-3215
▁mueve	-3216
▁multi	-3217
▁naran	-3218
▁nariz	-3219
▁negro	-3220
▁pacto	-3221
▁pares	-3222
▁pasan	-3223
▁perro	-3224
▁podré	-3225
▁presa	-3226
▁pueda	-3227
▁punta	-3228
▁reson	-3229
▁resto	-3230
▁revés	-3231
▁sacri	-3232
▁secre	-3233
▁somos	-3234
▁trata	-3235
▁traza	-3236
▁triun	-3237
▁valen	-3238
▁valor	-3239
▁venga	-3240
▁verla	-3241
▁viaje	-3242
▁vidas	-3243
▁vieja	-3244
▁yegua	-3245
▁ágora	-3246
camente	-3247
eración	-3248
parable	-3249
▁Cuando	-3250
▁Paraná	-3251
▁acabar	-3252
▁alaban	-3253
▁alegre	-3254
▁andaba	-3255
▁aventa	-3256
▁bienes	-3257
▁chinos	-3258
▁cobrar	-3259
▁comida	-3260
▁comido	-3261
▁compas	-3262
▁comple	-3263
▁compás	-3264
▁correo	-3265
▁cólera	-3266
▁detrás	-3267
▁efecti	-3268
▁entera	-3269
▁entero	-3270
▁esfuer	-3271
▁espuma	-3272
▁estuvo	-3273
▁faltar	-3274
▁guarda	-3275
▁hechos	-3276
▁huesos	-3277
▁marido	-3278
▁mentir	-3279
▁molido	-3280
▁mostró	-3281
▁oyendo	-3282
▁pasada	-3283
▁perlas	-3284
▁piensa	-3285
▁presto	-3286
▁prestó	-3287
▁preten	-3288
▁pájaro	-3289
▁quiera	-3290
▁recibi	-3291
▁refrán	-3292
▁regazo	-3293
▁revuel	-3294
▁segura	-3295
▁siglos	-3296
▁sábado	-3297
▁tenéis	-3298
▁verano	-3299
▁último	-3300
vimiento	-3301
▁Enrique	-3302
▁Estatua	-3303
▁Verdugo	-3304
▁abierto	-3305
▁alcalde	-3306
▁alcorno	-3307
▁alegres	-3308
▁arrastr	-3309
▁arrobas	-3310
▁averigu	-3311
▁carrera	-3312
▁concier	-3313
▁contien	-3314
▁criados	-3315
▁cuentan	-3316
▁decirse	-3317
▁dejaron	-3318
▁desagra	-3319
▁desapar	-3320
▁dineros	-3321
▁escrito	-3322
▁espadas	-3323
▁estamos	-3324
▁estando	-3325
▁fuertes	-3326
▁gallina	-3327
▁hubiere	-3328
▁intelig	-3329
▁mejores	-3330
▁merecía	-3331
▁murmura	-3332
▁negocio	-3333
▁noticia	-3334
▁ocasión	-3335
▁oficial	-3336
▁oración	-3337
▁pecador	-3338
▁pecados	-3339
▁persuad	-3340
▁querría	-3341
▁tampoco	-3342
▁tendido	-3343
▁tendrás	-3344
▁tiempos	-3345
▁tranqui	-3346
▁término	-3347
▁ínsulas	-3348
▁Renegado	-3349
▁Simiente	-3350
▁alforjas	-3351
▁bastante	-3352
▁cantando	-3353
▁casildea	-3354
▁conocido	-3355
▁consejos	-3356
▁consider	-3357
▁encierra	-3358
▁estrella	-3359
▁garganta	-3360
▁hermanos	-3361
▁infinito	-3362
▁lenguaje	-3363
▁mediodía	-3364
▁montañas	-3365
▁oliverio	-3366
▁personas	-3367
▁prosigue	-3368
▁sombrero	-3369
▁sucedido	-3370
▁trabajar	-3371
▁trompito	-3372
▁verdades	-3373
▁comenzaba	-3374
▁correspon	-3375
▁ejercicio	-3376
▁gobiernos	-3377
▁labradora	-3378
▁maravilla	-3379
▁mentecato	-3380
▁oscuridad	-3381
▁persiguen	-3382
▁proseguir	-3383
▁semejante	-3384
▁sustentar	-3385
▁tinieblas	-3386
▁verdadera	-3387
▁cualquiera	-3388
▁generación	-3389
▁honestidad	-3390
▁resplandor	-3391
▁satisfecho	-3392
▁sentencias	-3393
▁descubierto	-3394
▁imaginación	-3395
▁instrumentos	-3396
▁efectivamente	-3397
ck	-3398
rú	-3399
tá	-3400
éd	-3401
óm	-3402
▁$	-3403
▁9	-3404
are	-3405
aro	-3406
aré	-3407
bia	-3408
bil	-3409
cad	-3410
cis	-3411
cob	-3412
ear	-3413
eda	-3414
ign	-3415
ilo	-3416
jér	-3417
lex	-3418
num	-3419
one	-3420
osi	-3421
pes	-3422
ror	-3423
tañ	-3424
teo	-3425
tia	-3426
tré	-3427
tun	-3428
ure	-3429
uér	-3430
vin	-3431
vio	-3432
▁14	-3433
▁Ci	-3434
▁Dé	-3435
▁Ho	-3436
▁Ra	-3437
▁is	-3438
▁ná	-3439
▁zo	-3440
anoa	-3441
aría	-3442
beli	-3443
bito	-3444
cebo	-3445
cero	-3446
cina	-3447
cipo	-3448
culo	-3449
cífi	-3450
dere	-3451
domo	-3452
drán	-3453
eció	-3454
erro	-3455
etos	-3456
gres	-3457
gues	-3458
igre	-3459
isés	-3460
jeto	-3461
lano	-3462
ledo	-3463
lica	-3464
maba	-3465
ojos	-3466
omas	-3467
pulo	-3468
rael	-3469
reci	-3470
reta	-3471
ribu	-3472
tame	-3473
tera	-3474
timo	-3475
tino	-3476
tita	-3477
titu	-3478
tora	-3479
toso	-3480
tuas	-3481
udos	-3482
urar	-3483
usta	-3484
vira	-3485
zado	-3486
éano	-3487
▁300	-3488
▁Bar	-3489
▁Max	-3490
▁Pro	-3491
▁Tóm	-3492
▁ale	-3493
▁ayu	-3494
▁bru	-3495
▁cae	-3496
▁cel	-3497
▁cig	-3498
▁cog	-3499
▁cán	-3500
▁céd	-3501
▁das	-3502
▁div	-3503
▁déj	-3504
▁gab	-3505
▁gre	-3506
▁gén	-3507
▁hie	-3508
▁hin	-3509
▁ide	-3510
▁ina	-3511
▁inú	-3512
▁jab	-3513
▁lad	-3514
▁lej	-3515
▁llo	-3516
▁mir	-3517
▁mus	-3518
▁ran	-3519
▁ris	-3520
▁sub	-3521
▁sur	-3522
▁éch	-3523
adora	-3524
ampar	-3525
arato	-3526
boras	-3527
brada	-3528
cedad	-3529
chada	-3530
cinas	-3531
corro	-3532
ctura	-3533
daban	-3534
dable	-3535
didad	-3536
esper	-3537
estro	-3538
ficul	-3539
genes	-3540
gones	-3541
gusta	-3542
iedad	-3543
inero	-3544
lamar	-3545
licas	-3546
medad	-3547
monio	-3548
monos	-3549
quete	-3550
rimas	-3551
rovis	-3552
segui	-3553
tidas	-3554
tones	-3555
usión	-3556
▁3000	-3557
▁Aquí	-3558
▁Cris	-3559
▁Dona	-3560
▁Hino	-3561
▁Meli	-3562
▁abre	-3563
▁acog	-3564
▁aden	-3565
▁alab	-3566
▁aman	-3567
▁amos	-3568
▁anun	-3569
▁asno	-3570
▁ayer	-3571
▁bebé	-3572
▁besa	-3573
▁beso	-3574
▁bigo	-3575
▁bril	-3576
▁brin	-3577
▁capo	-3578
▁clam	-3579
▁colg	-3580
▁copa	-3581
▁cuad	-3582
▁deje	-3583
▁deri	-3584
▁dila	-3585
▁doña	-3586
▁dádi	-3587
▁ejér	-3588
▁exis	-3589
▁fría	-3590
▁haci	-3591
▁idea	-3592
▁incl	-3593
▁irre	-3594
▁jorn	-3595
▁juro	-3596
▁laca	-3597
▁ladr	-3598
▁luch	-3599
▁mezc	-3600
▁mons	-3601
▁ocul	-3602
▁ocur	-3603
▁olor	-3604
▁pade	-3605
▁pala	-3606
▁papá	-3607
▁patr	-3608
▁pide	-3609
▁prob	-3610
▁rinc	-3611
▁roca	-3612
▁sacu	-3613
▁supo	-3614
▁tall	-3615
▁tasa	-3616
▁títu	-3617
▁usan	-3618
▁veis	-3619
▁veng	-3620
▁viol	-3621
▁vivo	-3622
▁zumb	-3623
danzas	-3624
ención	-3625
jestad	-3626
mbrado	-3627
mentos	-3628
ramada	-3629
rúpulo	-3630
tallas	-3631
uentes	-3632
zmente	-3633
▁Canoa	-3634
▁Mambo	-3635
▁Prado	-3636
▁Winch	-3637
▁abraz	-3638
▁abrir	-3639
▁acogi	-3640
▁adqui	-3641
▁aflig	-3642
▁aguar	-3643
▁andan	-3644
▁apaci	-3645
▁asegu	-3646
▁autor	-3647
▁bambú	-3648
▁barra	-3649
▁bello	-3650
▁bizar	-3651
▁bodas	-3652
▁clavi	-3653
▁cobar	-3654
▁comió	-3655
▁comun	-3656
▁común	-3657
▁conce	-3658
▁confi	-3659
▁conta	-3660
▁costa	-3661
▁coyun	-3662
▁creía	-3663
▁cueva	-3664
▁cuyas	-3665
▁darte	-3666
▁dedos	-3667
▁embus	-3668
▁ensan	-3669
▁escal	-3670
▁escar	-3671
▁escul	-3672
▁excus	-3673
▁famos	-3674
▁final	-3675
▁forma	-3676
▁fruto	-3677
▁fácil	-3678
▁gasta	-3679
▁grave	-3680
▁habló	-3681
▁hayan	-3682
▁hilos	-3683
▁innum	-3684
▁inten	-3685
▁jugar	-3686
▁justa	-3687
▁juzgo	-3688
▁lasti	-3689
▁leche	-3690
▁leído	-3691
▁llamó	-3692
▁llega	-3693
▁lleve	-3694
▁manda	-3695
▁melan	-3696
▁melin	-3697
▁moder	-3698
▁muere	-3699
▁muros	-3700
▁negar	-3701
▁nieve	-3702
▁palos	-3703
▁parto	-3704
▁permi	-3705
▁plaza	-3706
▁pocas	-3707
▁queja	-3708
▁queso	-3709
▁remol	-3710
▁remon	-3711
▁retra	-3712
▁ricas	-3713
▁ricos	-3714
▁rigor	-3715
▁sabio	-3716
▁sarna	-3717
▁sauce	-3718
▁secas	-3719
▁senti	-3720
▁sentó	-3721
▁serlo	-3722
▁sirve	-3723
▁socor	-3724
▁subió	-3725
▁supli	-3726
▁tenga	-3727
▁tigre	-3728
▁tonto	-3729
▁traes	-3730
▁trigo	-3731
▁trope	-3732
▁vapor	-3733
▁veían	-3734
▁visor	-3735
▁única	-3736
cidente	-3737
damente	-3738
dicción	-3739
ordinar	-3740
tándole	-3741
tándose	-3742
ágrimas	-3743
▁Elvira	-3744
▁Israel	-3745
▁Llamar	-3746
▁Moisés	-3747
▁Toledo	-3748
▁Torres	-3749
▁barcos	-3750
▁bondad	-3751
▁comien	-3752
▁crecer	-3753
▁cubrir	-3754
▁cuesta	-3755
▁cédula	-3756
▁danzas	-3757
▁deshon	-3758
▁desier	-3759
▁disgus	-3760
▁dispar	-3761
▁envuel	-3762
▁eterna	-3763
▁fantas	-3764
▁fiesta	-3765
▁frutas	-3766
▁griego	-3767
▁herido	-3768
▁herram	-3769
▁instal	-3770
▁juntas	-3771
▁juzgar	-3772
▁libras	-3773
▁ligero	-3774
▁llegue	-3775
▁llevan	-3776
▁llevas	-3777
▁lumbre	-3778
▁medias	-3779
▁mirada	-3780
▁mismas	-3781
▁mundos	-3782
▁nacido	-3783
▁necesi	-3784
▁objeto	-3785
▁océano	-3786
▁ofreci	-3787
▁pagoda	-3788
▁pliego	-3789
▁poetas	-3790
▁prefer	-3791
▁rebeli	-3792
▁recién	-3793
▁regoci	-3794
▁remedi	-3795
▁ruedas	-3796
▁ruidos	-3797
▁salido	-3798
▁salvar	-3799
▁santos	-3800
▁semana	-3801
▁simpar	-3802
▁sufici	-3803
▁sujeto	-3804
▁tablas	-3805
▁tamaño	-3806
▁tierna	-3807
▁tirano	-3808
▁traigo	-3809
▁traían	-3810
▁vandal	-3811
▁vencer	-3812
▁versos	-3813
▁viejas	-3814
▁viento	-3815
▁vistió	-3816
amientos	-3817
aventura	-3818
ilidades	-3819
▁Socorro	-3820
▁abrazar	-3821
▁acabado	-3822
▁adentro	-3823
▁alcanzó	-3824
▁andaban	-3825
▁apearse	-3826
▁atraves	-3827
▁augusta	-3828
▁cabezas	-3829
▁caldero	-3830
▁campana	-3831
▁castigo	-3832
▁conocía	-3833
▁contigo	-3834
▁corrido	-3835
▁crédito	-3836
▁demonio	-3837
▁desafor	-3838
▁desnudo	-3839
▁dificul	-3840
▁dispara	-3841
▁dolores	-3842
▁dormido	-3843
▁echando	-3844
▁echaron	-3845
▁embargo	-3846
▁entraba	-3847
▁entrado	-3848
▁eructar	-3849
▁escoger	-3850
▁escudos	-3851
▁familia	-3852
▁fiestas	-3853
▁grabada	-3854
▁hacerlo	-3855
▁hallaba	-3856
▁hermana	-3857
▁honrado	-3858
▁imagino	-3859
▁impreso	-3860
▁malicia	-3861
▁mandado	-3862
▁militar	-3863
▁minutos	-3864
▁murmuró	-3865
▁pagodas	-3866
▁pequeña	-3867
▁pierres	-3868
▁promesa	-3869
▁pudiese	-3870
▁puestos	-3871
▁quedaba	-3872
▁quedara	-3873
▁redonda	-3874
▁repente	-3875
▁riendas	-3876
▁sacaron	-3877
▁señales	-3878
▁tenemos	-3879
▁tristes	-3880
▁vientre	-3881
▁viniese	-3882
▁visitar	-3883
▁volando	-3884
▁víboras	-3885
▁órdenes	-3886
▁Enramada	-3887
▁Hinojosa	-3888
▁admirado	-3889
▁anamitas	-3890
▁anticipo	-3891
▁aventura	-3892
▁cabellos	-3893
▁conforme	-3894
▁contempl	-3895
▁contrata	-3896
▁desampar	-3897
▁descanso	-3898
▁desencan	-3899
▁diversos	-3900
▁enanitos	-3901
▁encontró	-3902
▁entendió	-3903
▁escribir	-3904
▁espuelas	-3905
▁estatuas	-3906
▁imprimir	-3907
▁inconven	-3908
▁labrador	-3909
▁llevaban	-3910
▁llevando	-3911
▁mudanzas	-3912
▁muestras	-3913
▁pastores	-3914
▁persegui	-3915
▁plantita	-3916
▁poderoso	-3917
▁profundo	-3918
▁quedarse	-3919
▁recuerdo	-3920
▁relación	-3921
▁responde	-3922
▁visiones	-3923
▁volviese	-3924
▁vuestras	-3925
▁caminante	-3926
▁compañera	-3927
▁conceptos	-3928
▁conocemos	-3929
▁desgracia	-3930
▁discretos	-3931
▁durmiendo	-3932
▁escribano	-3933
▁escrúpulo	-3934
▁facilidad	-3935
▁gallinero	-3936
▁generales	-3937
▁ignorante	-3938
▁mayordomo	-3939
▁miserable	-3940
▁moribundo	-3941
▁muchachos	-3942
▁seguridad	-3943
▁Caballeros	-3944
▁Winchester	-3945
▁acomodando	-3946
▁alcornoque	-3947
▁costumbres	-3948
▁diligencia	-3949
▁escuchando	-3950
▁extranjero	-3951
▁habiéndose	-3952
▁levantarse	-3953
▁suficiente	-3954
▁testimonio	-3955
▁Atentamente	-3956
▁experiencia	-3957
▁irreparable	-3958
▁dirigiéndose	-3959
▁extraordinar	-3960
▁innumerables	-3961
▁jurisdicción	-3962
▁pareciéndole	-3963
▁completamente	-3964
▁especialmente	-3965
az	-3966
br	-3967
ha	-3968
lí	-3969
má	-3970
vó	-3971
wn	-3972
zá	-3973
úl	-3974
ben	-3975
coh	-3976
cén	-3977
dri	-3978
dré	-3979
dus	-3980
dán	-3981
ens	-3982
ern	-3983
erá	-3984
far	-3985
fic	-3986
fil	-3987
gla	-3988
ion	-3989
jen	-3990
jon	-3991
lag	-3992
lli	-3993
llo	-3994
lón	-3995
mió	-3996
ocu	-3997
ote	-3998
pea	-3999
pre	-4000
ral	-4001
rez	-4002
taz	-4003
tol	-4004
tás	-4005
tín	-4006
use	-4007
val	-4008
ván	-4009
zon	-4010
ógi	-4011
óma	-4012
▁17	-4013
▁18	-4014
▁43	-4015
▁44	-4016
▁60	-4017
▁Ab	-4018
▁Ar	-4019
▁Fu	-4020
▁Mr	-4021
▁at	-4022
▁cá	-4023
▁ge	-4024
▁il	-4025
▁iz	-4026
▁jó	-4027
▁Án	-4028
alto	-4029
anda	-4030
anes	-4031
arol	-4032
asta	-4033
bara	-4034
bora	-4035
bros	-4036
cano	-4037
cena	-4038
chor	-4039
cipe	-4040
dará	-4041
date	-4042
deci	-4043
dias	-4044
erda	-4045
esta	-4046
fies	-4047
goña	-4048
güen	-4049
iene	-4050
imos	-4051
irar	-4052
ispo	-4053
izar	-4054
leta	-4055
llos	-4056
ogle	-4057
osta	-4058
pado	-4059
pido	-4060
rano	-4061
taro	-4062
tell	-4063
tima	-4064
tiró	-4065
torn	-4066
trim	-4067
tían	-4068
ueve	-4069
ufra	-4070
uido	-4071
umas	-4072
uérf	-4073
vado	-4074
ñoso	-4075
▁200	-4076
▁Cal	-4077
▁Cam	-4078
▁Eso	-4079
▁Mad	-4080
▁Ter	-4081
▁adi	-4082
▁alc	-4083
▁ali	-4084
▁alu	-4085
▁amp	-4086
▁ans	-4087
▁aus	-4088
▁ber	-4089
▁chu	-4090
▁cop	-4091
▁doc	-4092
▁evi	-4093
▁fil	-4094
▁ful	-4095
▁fun	-4096
▁fér	-4097
▁haz	-4098
▁hos	-4099
▁huy	-4100
▁imi	-4101
▁imá	-4102
▁irá	-4103
▁lum	-4104
▁mer	-4105
▁obs	-4106
▁oía	-4107
▁pañ	-4108
▁pis	-4109
▁ple	-4110
▁the	-4111
▁tos	-4112
adoso	-4113
adura	-4114
alles	-4115
allos	-4116
biera	-4117
blica	-4118
cador	-4119
cales	-4120
chete	-4121
cidas	-4122
cinto	-4123
cipes	-4124
danza	-4125
daron	-4126
deras	-4127
dezco	-4128
efici	-4129
embre	-4130
estad	-4131
ficar	-4132
guera	-4133
inaba	-4134
inado	-4135
intió	-4136
iosos	-4137
ismos	-4138
isten	-4139
izado	-4140
jonal	-4141
lando	-4142
legio	-4143
llada	-4144
mania	-4145
mería	-4146
nific	-4147
omero	-4148
pados	-4149
piros	-4150
pitán	-4151
queza	-4152
raban	-4153
ramos	-4154
raron	-4155
rarse	-4156
ratas	-4157
ritos	-4158
semos	-4159
tarle	-4160
taste	-4161
tazos	-4162
teros	-4163
tiles	-4164
treza	-4165
tudes	-4166
uerta	-4167
uerto	-4168
urado	-4169
venes	-4170
venir	-4171
verna	-4172
zadas	-4173
zones	-4174
▁Dame	-4175
▁Esto	-4176
▁Guer	-4177
▁Luis	-4178
▁Para	-4179
▁Solo	-4180
▁acep	-4181
▁ahor	-4182
▁ambi	-4183
▁amig	-4184
▁apre	-4185
▁atar	-4186
▁avel	-4187
▁bajó	-4188
▁bala	-4189
▁base	-4190
▁bode	-4191
▁casu	-4192
▁cató	-4193
▁caía	-4194
▁cele	-4195
▁colm	-4196
▁colo	-4197
▁cuna	-4198
▁deci	-4199
▁deli	-4200
▁devo	-4201
▁dibu	-4202
▁dirá	-4203
▁dulc	-4204
▁echa	-4205
▁enoj	-4206
▁esco	-4207
▁feos	-4208
▁fiel	-4209
▁fier	-4210
▁gala	-4211
▁gato	-4212
▁glor	-4213
▁hice	-4214
▁jard	-4215
▁jugo	-4216
▁jura	-4217
▁lima	-4218
▁lími	-4219
▁mate	-4220
▁mesa	-4221
▁mura	-4222
▁muri	-4223
▁míra	-4224
▁odio	-4225
▁palm	-4226
▁poll	-4227
▁pose	-4228
▁pris	-4229
▁pron	-4230
▁puño	-4231
▁rapi	-4232
▁redu	-4233
▁repe	-4234
▁repi	-4235
▁reve	-4236
▁rica	-4237
▁rodi	-4238
▁ríos	-4239
▁saco	-4240
▁seré	-4241
▁sirv	-4242
▁sobr	-4243
▁sole	-4244
▁supi	-4245
▁tipo	-4246
▁tiro	-4247
▁torn	-4248
▁tron	-4249
▁tuve	-4250
▁tuyo	-4251
▁uñas	-4252
▁vana	-4253
▁vier	-4254
▁vivi	-4255
cablos	-4256
ciente	-4257
ciosos	-4258
dancia	-4259
diente	-4260
erador	-4261
estias	-4262
ilidad	-4263
mación	-4264
resión	-4265
rieron	-4266
rillos	-4267
sativo	-4268
tancia	-4269
terior	-4270
tieron	-4271
tillos	-4272
traron	-4273
uestas	-4274
ándome	-4275
éndolo	-4276
▁Costa	-4277
▁Desde	-4278
▁Dulce	-4279
▁Hasta	-4280
▁Jacob	-4281
▁Mirad	-4282
▁Santa	-4283
▁agudo	-4284
▁alcoh	-4285
▁almas	-4286
▁almen	-4287
▁ardor	-4288
▁arroz	-4289
▁asilo	-4290
▁aumen	-4291
▁ayuno	-4292
▁besar	-4293
▁botas	-4294
▁burla	-4295
▁calla	-4296
▁casos	-4297
▁cazar	-4298
▁cebol	-4299
▁cigar	-4300
▁colum	-4301
▁cuate	-4302
▁culpa	-4303
▁danza	-4304
▁dejan	-4305
▁dejen	-4306
▁delei	-4307
▁demos	-4308
▁derro	-4309
▁desaf	-4310
▁desma	-4311
▁destr	-4312
▁deter	-4313
▁diera	-4314
▁diese	-4315
▁digna	-4316
▁duela	-4317
▁enros	-4318
▁ensar	-4319
▁envía	-4320
▁farol	-4321
▁feliz	-4322
▁hable	-4323
▁haces	-4324
▁halla	-4325
▁herir	-4326
▁hueso	-4327
▁huevo	-4328
▁huérf	-4329
▁inces	-4330
▁inven	-4331
▁izqui	-4332
▁labor	-4333
▁legua	-4334
▁leyes	-4335
▁luces	-4336
▁maldi	-4337
▁malos	-4338
▁menti	-4339
▁mezcl	-4340
▁milag	-4341
▁moría	-4342
▁muera	-4343
▁mulas	-4344
▁negra	-4345
▁obede	-4346
▁parar	-4347
▁pedía	-4348
▁pidió	-4349
▁playa	-4350
▁polvo	-4351
▁pongo	-4352
▁ponía	-4353
▁publi	-4354
▁quede	-4355
▁quitó	-4356
▁rayos	-4357
▁recio	-4358
▁recog	-4359
▁reina	-4360
▁relig	-4361
▁renue	-4362
▁rompi	-4363
▁ronco	-4364
▁rumor	-4365
▁salen	-4366
▁salto	-4367
▁soplo	-4368
▁sospe	-4369
▁sucio	-4370
▁sumer	-4371
▁sílex	-4372
▁techo	-4373
▁traen	-4374
▁usted	-4375
▁vacío	-4376
▁valía	-4377
▁vemos	-4378
▁ventu	-4379
▁verse	-4380
▁vigil	-4381
▁vivió	-4382
▁yendo	-4383
▁zagal	-4384
▁ánimo	-4385
▁único	-4386
iencias	-4387
itativo	-4388
tellana	-4389
éndoles	-4390
▁Abismo	-4391
▁Ciudad	-4392
▁Cuanto	-4393
▁Google	-4394
▁Tómese	-4395
▁abrigo	-4396
▁aceite	-4397
▁acerca	-4398
▁acostu	-4399
▁acredi	-4400
▁además	-4401
▁altura	-4402
▁anchos	-4403
▁arrimó	-4404
▁ataque	-4405
▁barbas	-4406
▁bichos	-4407
▁blanda	-4408
▁breves	-4409
▁bueyes	-4410
▁cachor	-4411
▁camisa	-4412
▁capote	-4413
▁carnes	-4414
▁carros	-4415
▁cascab	-4416
▁cascos	-4417
▁celoso	-4418
▁cielos	-4419
▁claras	-4420
▁confus	-4421
▁corona	-4422
▁corren	-4423
▁cortar	-4424
▁cuerda	-4425
▁dejará	-4426
▁descal	-4427
▁descen	-4428
▁desear	-4429
▁dijese	-4430
▁dormía	-4431
▁durmió	-4432
▁dígame	-4433
▁encina	-4434
▁escudo	-4435
▁espaci	-4436
▁espejo	-4437
▁estaré	-4438
▁estóma	-4439
▁famosa	-4440
▁fantás	-4441
▁fortal	-4442
▁fuente	-4443
▁fuiste	-4444
▁gallar	-4445
▁habido	-4446
▁hablas	-4447
▁herida	-4448
▁hierba	-4449
▁infier	-4450
▁intitu	-4451
▁jabalí	-4452
▁justas	-4453
▁lacayo	-4454
▁largos	-4455
▁leones	-4456
▁libres	-4457
▁linaje	-4458
▁llueve	-4459
▁manten	-4460
▁matrim	-4461
▁merece	-4462
▁motivo	-4463
▁nacerá	-4464
▁ninfas	-4465
▁ningún	-4466
▁número	-4467
▁oscura	-4468
▁oscure	-4469
▁oyeron	-4470
▁parado	-4471
▁pareja	-4472
▁pasean	-4473
▁patrón	-4474
▁pedazo	-4475
▁perdon	-4476
▁pierde	-4477
▁pintor	-4478
▁placer	-4479
▁plumas	-4480
▁portal	-4481
▁probar	-4482
▁puesta	-4483
▁quedan	-4484
▁rancho	-4485
▁recono	-4486
▁regalo	-4487
▁rencor	-4488
▁reposo	-4489
▁repuso	-4490
▁restos	-4491
▁retira	-4492
▁riendo	-4493
▁sabían	-4494
▁saldrá	-4495
▁salida	-4496
▁sentar	-4497
▁sentir	-4498
▁siento	-4499
▁sobres	-4500
▁suelto	-4501
▁tambor	-4502
▁tembló	-4503
▁templo	-4504
▁tendré	-4505
▁trampa	-4506
▁tratar	-4507
▁tuvier	-4508
▁vender	-4509
▁veneno	-4510
▁venida	-4511
▁verdes	-4512
▁vestir	-4513
▁viejos	-4514
▁viudas	-4515
▁íntimo	-4516
adamente	-4517
eficiado	-4518
eramente	-4519
▁Capitán	-4520
▁Cuántas	-4521
▁Cuántos	-4522
▁Donaire	-4523
▁abandon	-4524
▁aliento	-4525
▁almacén	-4526
▁antiguo	-4527
▁avellan	-4528
▁bendito	-4529
▁bestias	-4530
▁blancas	-4531
▁borgoña	-4532
▁cadenas	-4533
▁calidad	-4534
▁callada	-4535
▁campaña	-4536
▁capilla	-4537
▁caverna	-4538
▁cayeron	-4539
▁ciertas	-4540
▁cintura	-4541
▁clavija	-4542
▁confuso	-4543
▁conozco	-4544
▁cántaro	-4545
▁derribó	-4546
▁descomp	-4547
▁descono	-4548
▁desenga	-4549
▁desnuda	-4550
▁destino	-4551
▁diablos	-4552
▁difunto	-4553
▁domingo	-4554
▁duermen	-4555
▁empresa	-4556
▁encargo	-4557
▁enemiga	-4558
▁erratas	-4559
▁espalda	-4560
▁espanto	-4561
▁estacas	-4562
▁exclama	-4563
▁extraña	-4564
▁extraño	-4565
▁figuras	-4566
▁guardia	-4567
▁haberse	-4568
▁hallado	-4569
▁hoguera	-4570
▁hombros	-4571
▁indicio	-4572
▁inmensa	-4573
▁inmenso	-4574
▁jóvenes	-4575
▁lectura	-4576
▁levantó	-4577
▁llamaba	-4578
▁lugares	-4579
▁machete	-4580
▁mancebo	-4581
▁mandaba	-4582
▁mayores	-4583
▁mediano	-4584
▁muertos	-4585
▁músicos	-4586
▁nacidos	-4587
▁necedad	-4588
▁oscuras	-4589
▁pajonal	-4590
▁parezca	-4591
▁partida	-4592
▁pedazos	-4593
▁pequeño	-4594
▁permane	-4595
▁posadas	-4596
▁prendas	-4597
▁prometo	-4598
▁prosper	-4599
▁quitado	-4600
▁recibió	-4601
▁recinto	-4602
▁reposar	-4603
▁riqueza	-4604
▁sacando	-4605
▁saliese	-4606
▁sombras	-4607
▁suceder	-4608
▁sucesos	-4609
▁suplico	-4610
▁tercera	-4611
▁ustedes	-4612
▁vecinos	-4613
▁vendrán	-4614
▁Alemania	-4615
▁Aventura	-4616
▁Justicia	-4617
▁Majestad	-4618
▁acertado	-4619
▁acordado	-4620
▁anterior	-4621
▁apacible	-4622
▁arrastró	-4623
▁aventaja	-4624
▁batallas	-4625
▁bellotas	-4626
▁botellas	-4627
▁callados	-4628
▁camarada	-4629
▁concluir	-4630
▁confieso	-4631
▁contando	-4632
▁contener	-4633
▁contenta	-4634
▁continuo	-4635
▁continuó	-4636
▁convento	-4637
▁cubierto	-4638
▁culebras	-4639
▁defender	-4640
▁derramar	-4641
▁desesper	-4642
▁deshonra	-4643
▁despertó	-4644
▁despojos	-4645
▁despreci	-4646
▁destreza	-4647
▁discurso	-4648
▁diversas	-4649
▁edificio	-4650
▁ejército	-4651
▁elección	-4652
▁entiende	-4653
▁esfuerzo	-4654
▁esperaré	-4655
▁flaqueza	-4656
▁formaban	-4657
▁gallinas	-4658
▁gracioso	-4659
▁gravedad	-4660
▁guerrero	-4661
▁hallaron	-4662
▁hubieran	-4663
▁improvis	-4664
▁imágenes	-4665
▁licencia	-4666
▁llevaron	-4667
▁manifies	-4668
▁medicina	-4669
▁mostraba	-4670
▁naciones	-4671
▁peligros	-4672
▁pintadas	-4673
▁pláticas	-4674
▁profunda	-4675
▁príncipe	-4676
▁puntería	-4677
▁quedando	-4678
▁sepulcro	-4679
▁servicio	-4680
▁soberana	-4681
▁sorpresa	-4682
▁vandalia	-4683
▁vasallos	-4684
▁venganza	-4685
▁vocablos	-4686
▁aconsejar	-4687
▁agradezco	-4688
▁alabanzas	-4689
▁apartaron	-4690
▁artificio	-4691
▁camaradas	-4692
▁canciones	-4693
▁capítulos	-4694
▁compasión	-4695
▁considera	-4696
▁corriendo	-4697
▁costillas	-4698
▁cristiano	-4699
▁descubier	-4700
▁despertar	-4701
▁emperador	-4702
▁escuchaba	-4703
▁espantoso	-4704
▁estuviese	-4705
▁felicidad	-4706
▁huérfanos	-4707
▁impresión	-4708
▁izquierda	-4709
▁muchachas	-4710
▁peligroso	-4711
▁pensativo	-4712
▁persuadir	-4713
▁presentar	-4714
▁prudencia	-4715
▁príncipes	-4716
▁quisieran	-4717
▁responder	-4718
▁respondía	-4719
▁sacerdote	-4720
▁sentencia	-4721
▁siguieron	-4722
▁tempestad	-4723
▁volviendo	-4724
▁caritativo	-4725
▁casamiento	-4726
▁castellana	-4727
▁concertada	-4728
▁cristianos	-4729
▁desventura	-4730
▁diciéndole	-4731
▁diferencia	-4732
▁enfermedad	-4733
▁esperanzas	-4734
▁grandísimo	-4735
▁levantando	-4736
▁maravillas	-4737
▁matrimonio	-4738
▁nacimiento	-4739
▁peregrinos	-4740
▁sacerdotes	-4741
▁velozmente	-4742
▁verdaderos	-4743
▁arrastrando	-4744
▁beneficiado	-4745
▁cachorritos	-4746
▁ciertamente	-4747
▁condiciones	-4748
▁conveniente	-4749
▁declaración	-4750
▁defendiendo	-4751
▁desgraciado	-4752
▁estudiantes	-4753
▁habilidades	-4754
▁atrevimiento	-4755
▁razonamiento	-4756
▁encantamiento	-4757
▁verdaderamente	-4758
af	-4759
fr	-4760
ji	-4761
ka	-4762
ly	-4763
lé	-4764
ní	-4765
ps	-4766
rí	-4767
th	-4768
uz	-4769
úd	-4770
▁á	-4771
amo	-4772
bri	-4773
col	-4774
cun	-4775
cán	-4776
ega	-4777
ela	-4778
ele	-4779
ete	-4780
fad	-4781
fes	-4782
fos	-4783
fía	-4784
get	-4785
gil	-4786
gió	-4787
gon	-4788
gón	-4789
inó	-4790
jal	-4791
jan	-4792
lab	-4793
ley	-4794
món	-4795
niz	-4796
onz	-4797
osé	-4798
rin	-4799
bel	-4800
ile	-4801
rio	-4802
udó	-4803
uvo	-4804
via	-4805
vés	-4806
éro	-4807
ñir	-4808
ódi	-4809
úbi	-4810
úgu	-4811
úpi	-4812
▁30	-4813
▁33	-4814
▁42	-4815
▁50	-4816
▁71	-4817
▁72	-4818
▁75	-4819
▁Da	-4820
▁He	-4821
▁Pu	-4822
▁Va	-4823
▁Vi	-4824
▁bá	-4825
▁cú	-4826
▁ef	-4827
▁eh	-4828
▁eu	-4829
▁gi	-4830
▁it	-4831
▁má	-4832
▁pí	-4833
▁rí	-4834
▁yu	-4835
▁ám	-4836
adme	-4837
anta	-4838
aria	-4839
arle	-4840
arís	-4841
avel	-4842
añol	-4843
bero	-4844
cará	-4845
casa	-4846
cial	-4847
ciar	-4848
cien	-4849
codo	-4850
ctur	-4851
cuen	-4852
cías	-4853
dalu	-4854
dese	-4855
diab	-4856
egos	-4857
elas	-4858
enga	-4859
enos	-4860
ermo	-4861
erta	-4862
femi	-4863
fica	-4864
fico	-4865
galo	-4866
gate	-4867
gios	-4868
giti	-4869
goza	-4870
guar	-4871
guer	-4872
guna	-4873
ille	-4874
isas	-4875
iver	-4876
jear	-4877
jole	-4878
ldar	-4879
lido	-4880
losa	-4881
mada	-4882
ming	-4883
máti	-4884
nimo	-4885
oras	-4886
orre	-4887
orte	-4888
pada	-4889
pias	-4890
pita	-4891
poca	-4892
rasa	-4893
rida	-4894
rima	-4895
rome	-4896
roya	-4897
ruen	-4898
tare	-4899
ambr	-4900
bulo	-4901
ebro	-4902
ipto	-4903
tese	-4904
teza	-4905
tito	-4906
tiva	-4907
tiño	-4908
uces	-4909
udez	-4910
uida	-4911
uill	-4912
ulgo	-4913
unci	-4914
unco	-4915
yada	-4916
zoso	-4917
árse	-4918
ñado	-4919
ócri	-4920
▁Aur	-4921
▁Dos	-4922
▁Ese	-4923
▁Gar	-4924
▁Gol	-4925
▁Mor	-4926
▁Nos	-4927
▁Noé	-4928
▁Oye	-4929
▁Pla	-4930
▁Pos	-4931
▁Ram	-4932
▁Rep	-4933
▁Rol	-4934
▁Ser	-4935
▁Sil	-4936
▁Sin	-4937
▁Tan	-4938
▁Tar	-4939
▁Vio	-4940
▁abs	-4941
▁aho	-4942
▁ama	-4943
▁ara	-4944
▁bab	-4945
▁cha	-4946
▁cur	-4947
▁cám	-4948
▁eno	-4949
▁fis	-4950
▁gig	-4951
▁glo	-4952
▁iré	-4953
▁jal	-4954
▁jan	-4955
▁jer	-4956
▁lee	-4957
▁lon	-4958
▁lus	-4959
▁niñ	-4960
▁oir	-4961
▁oto	-4962
▁pil	-4963
▁pob	-4964
▁pur	-4965
▁púb	-4966
▁red	-4967
▁ret	-4968
▁riñ	-4969
▁rog	-4970
▁sua	-4971
▁teñ	-4972
▁ton	-4973
▁top	-4974
▁tru	-4975
▁tré	-4976
▁use	-4977
▁uña	-4978
▁var	-4979
▁viv	-4980
▁you	-4981
ablos	-4982
adero	-4983
apado	-4984
arlos	-4985
barda	-4986
cadas	-4987
cerse	-4988
chaba	-4989
choso	-4990
citos	-4991
curas	-4992
dales	-4993
derlo	-4994
diste	-4995
eando	-4996
ecerá	-4997
ecido	-4998
gamos	-4999
ganme	-5000
genio	-5001
girse	-5002
ibles	-5003
ienzo	-5004
iesen	-5005
ilado	-5006
inete	-5007
jaban	-5008
jotes	-5009
lería	-5010
lidos	-5011
mante	-5012
mbrar	-5013
menta	-5014
ocupa	-5015
ológi	-5016
onada	-5017
ordar	-5018
ortun	-5019
pción	-5020
petua	-5021
quito	-5022
redos	-5023
rente	-5024
rilla	-5025
rosas	-5026
sidad	-5027
suelo	-5028
tanía	-5029
taria	-5030
tarla	-5031
tedra	-5032
terra	-5033
tinas	-5034
tirlo	-5035
tiste	-5036
tivas	-5037
trona	-5038
uelen	-5039
usias	-5040
varon	-5041
veses	-5042
vidad	-5043
viene	-5044
villo	-5045
vores	-5046
zados	-5047
ñones	-5048
▁1600	-5049
▁2000	-5050
▁Allí	-5051
▁Asia	-5052
▁Aven	-5053
▁Bern	-5054
▁Bran	-5055
▁Caña	-5056
▁Cuál	-5057
▁Cómi	-5058
▁Dale	-5059
▁Dijo	-5060
▁Ella	-5061
▁Este	-5062
▁Gall	-5063
▁Gonz	-5064
▁Hola	-5065
▁Nues	-5066
▁Rayo	-5067
▁Roma	-5068
▁Soto	-5069
▁Zara	-5070
▁acar	-5071
▁acto	-5072
▁adiv	-5073
▁afec	-5074
▁agui	-5075
▁alde	-5076
▁alga	-5077
▁alza	-5078
▁amad	-5079
▁amon	-5080
▁ande	-5081
▁apli	-5082
▁apun	-5083
▁arco	-5084
▁asen	-5085
▁atón	-5086
▁avan	-5087
▁baúl	-5088
▁bebe	-5089
▁blas	-5090
▁bofe	-5091
▁brío	-5092
▁carb	-5093
▁cena	-5094
▁char	-5095
▁codi	-5096
▁dele	-5097
▁desl	-5098
▁dije	-5099
cuns	-5100
▁José	-5101
▁docu	-5102
▁empe	-5103
▁enti	-5104
▁espi	-5105
▁fijo	-5106
▁fuga	-5107
▁ganó	-5108
▁gemi	-5109
▁hilo	-5110
▁hoja	-5111
▁huye	-5112
▁impi	-5113
▁inau	-5114
▁indu	-5115
▁inme	-5116
▁inse	-5117
▁irse	-5118
▁lago	-5119
▁lazo	-5120
▁lúgu	-5121
▁masa	-5122
▁mete	-5123
▁mire	-5124
▁moza	-5125
▁mudo	-5126
▁muro	-5127
▁mías	-5128
▁nido	-5129
▁nube	-5130
▁oigo	-5131
▁olas	-5132
▁osos	-5133
▁palo	-5134
▁paño	-5135
▁pene	-5136
▁pesa	-5137
▁pido	-5138
▁prés	-5139
▁pura	-5140
▁recl	-5141
▁rema	-5142
▁remo	-5143
▁rogó	-5144
▁sabr	-5145
▁seca	-5146
▁seco	-5147
▁sigo	-5148
▁taba	-5149
▁taza	-5150
▁tela	-5151
▁tole	-5152
▁true	-5153
▁tumb	-5154
▁túni	-5155
▁usar	-5156
▁vano	-5157
▁veré	-5158
▁voló	-5159
▁voto	-5160
▁útil	-5161
adoras	-5162
aduras	-5163
bación	-5164
bieran	-5165
borios	-5166
celana	-5167
celona	-5168
ciosas	-5169
corpor	-5170
ctoria	-5171
dentor	-5172
erable	-5173
erosas	-5174
erosos	-5175
femias	-5176
gueras	-5177
güenza	-5178
iciosa	-5179
ientas	-5180
ionero	-5181
irando	-5182
lación	-5183
minado	-5184
ongado	-5185
osidad	-5186
ostomo	-5187
parada	-5188
rantes	-5189
ruendo	-5190
usiera	-5191
vierte	-5192
visión	-5193
volver	-5194
ándola	-5195
ástima	-5196
éndome	-5197
ísimas	-5198
ública	-5199
▁Alves	-5200
▁Aquel	-5201
▁China	-5202
▁Conde	-5203
▁Cueva	-5204
▁Ellos	-5205
▁Entré	-5206
▁Furia	-5207
▁Guill	-5208
▁Junco	-5209
▁Miser	-5210
▁París	-5211
▁Pobre	-5212
▁Ravel	-5213
▁Torre	-5214
▁Troya	-5215
▁Venid	-5216
▁abund	-5217
▁acabe	-5218
▁acome	-5219
▁acuer	-5220
▁afici	-5221
▁agobi	-5222
▁ajena	-5223
▁alzar	-5224
▁angus	-5225
▁armon	-5226
▁aviso	-5227
▁añade	-5228
▁balde	-5229
▁beben	-5230
▁bravo	-5231
▁brota	-5232
▁cabra	-5233
▁callé	-5234
▁cambi	-5235
▁caras	-5236
▁carga	-5237
▁casti	-5238
▁cauti	-5239
▁chino	-5240
▁ciega	-5241
▁clamó	-5242
▁claus	-5243
▁clavo	-5244
▁cobre	-5245
▁corne	-5246
▁corta	-5247
▁cortó	-5248
▁crees	-5249
▁dadas	-5250
▁debes	-5251
▁defra	-5252
▁dejas	-5253
▁derre	-5254
▁desar	-5255
▁desea	-5256
▁digan	-5257
▁diría	-5258
▁dolía	-5259
▁dudas	-5260
▁débil	-5261
▁ejecu	-5262
▁ejemp	-5263
▁encog	-5264
▁encor	-5265
▁entré	-5266
▁errar	-5267
▁escan	-5268
▁eslab	-5269
▁estra	-5270
▁estén	-5271
▁estés	-5272
▁excel	-5273
▁falda	-5274
▁falso	-5275
▁falte	-5276
▁gabán	-5277
▁gorda	-5278
▁grado	-5279
▁grasa	-5280
▁hablo	-5281
▁hagan	-5282
▁hallo	-5283
▁hambr	-5284
▁harta	-5285
▁hielo	-5286
▁indus	-5287
▁insis	-5288
▁invad	-5289
▁lanzó	-5290
▁lazos	-5291
▁lento	-5292
▁letra	-5293
▁limpi	-5294
▁lindo	-5295
▁llevo	-5296
▁logra	-5297
▁magia	-5298
▁magní	-5299
▁malas	-5300
▁marca	-5301
▁mesas	-5302
▁miran	-5303
▁monje	-5304
▁muche	-5305
▁mudar	-5306
▁mueva	-5307
▁natal	-5308
▁naves	-5309
▁niñas	-5310
▁nácar	-5311
▁ollas	-5312
▁oreja	-5313
▁oveja	-5314
▁pajar	-5315
▁pasto	-5316
▁pegar	-5317
▁pluma	-5318
▁ponga	-5319
▁prece	-5320
▁predi	-5321
▁premi	-5322
▁procu	-5323
▁pulso	-5324
▁puntu	-5325
▁ratón	-5326
▁recib	-5327
▁reque	-5328
▁respe	-5329
▁reñir	-5330
▁robus	-5331
▁roman	-5332
▁rueda	-5333
▁ruego	-5334
▁rumbo	-5335
▁sabor	-5336
▁sello	-5337
▁selva	-5338
▁seres	-5339
▁siglo	-5340
▁sirva	-5341
▁socar	-5342
▁sollo	-5343
▁sopor	-5344
▁suced	-5345
▁super	-5346
▁suyas	-5347
▁tarce	-5348
▁tarea	-5349
▁testa	-5350
▁tiemb	-5351
▁tocas	-5352
▁tomes	-5353
▁torno	-5354
▁toros	-5355
▁trage	-5356
▁traig	-5357
▁vanag	-5358
▁venas	-5359
▁verlo	-5360
▁verte	-5361
▁vicio	-5362
▁virtu	-5363
▁viste	-5364
▁vivos	-5365
▁vivía	-5366
▁volar	-5367
▁volví	-5368
▁vulgo	-5369
▁ángel	-5370
▁época	-5371
biterio	-5372
calipto	-5373
carudos	-5374
cándose	-5375
daderas	-5376
dalucía	-5377
entador	-5378
gándose	-5379
licidad	-5380
mamente	-5381
mbrosio	-5382
ológico	-5383
osición	-5384
osotras	-5385
▁Aurora	-5386
▁Buscar	-5387
▁Campos	-5388
▁Cortés	-5389
▁Cumbre	-5390
▁Cuánto	-5391
▁Duques	-5392
▁Espero	-5393
▁García	-5394
▁Gloria	-5395
▁Lienzo	-5396
▁Patiño	-5397
▁Poncho	-5398
▁Ramada	-5399
▁Roldán	-5400
▁Santos	-5401
▁Target	-5402
▁abraza	-5403
▁abuela	-5404
▁acaban	-5405
▁aconte	-5406
▁ademán	-5407
▁admiro	-5408
▁adorno	-5409
▁ajenas	-5410
▁amigas	-5411
▁anchas	-5412
▁anduvo	-5413
▁anillo	-5414
▁aparte	-5415
▁aprove	-5416
▁arenga	-5417
▁arreme	-5418
▁arrodi	-5419
▁asunto	-5420
▁atribu	-5421
▁bailar	-5422
▁bajaba	-5423
▁bebido	-5424
▁borbol	-5425
▁brotan	-5426
▁burlas	-5427
▁buscas	-5428
▁callar	-5429
▁cambio	-5430
▁camina	-5431
▁cantan	-5432
▁casaba	-5433
▁centro	-5434
▁conclu	-5435
▁confir	-5436
▁consig	-5437
▁consis	-5438
▁consol	-5439
▁contor	-5440
▁corrió	-5441
▁cuarta	-5442
▁cuarto	-5443
▁cuates	-5444
▁cumple	-5445
▁cámara	-5446
▁debéis	-5447
▁dejaré	-5448
▁deriva	-5449
▁descor	-5450
▁desgar	-5451
▁despab	-5452
▁despos	-5453
▁destro	-5454
▁destru	-5455
▁dichos	-5456
▁dijera	-5457
▁discip	-5458
▁disfra	-5459
▁divina	-5460
▁docena	-5461
▁duelen	-5462
▁déjame	-5463
▁díjole	-5464
▁echaba	-5465
▁echado	-5466
▁embria	-5467
▁empren	-5468
▁endiab	-5469
▁engañó	-5470
▁engran	-5471
▁entran	-5472
▁envidi	-5473
▁espero	-5474
▁esposa	-5475
▁evitar	-5476
▁experi	-5477
▁extrañ	-5478
▁falsas	-5479
▁favore	-5480
▁firmes	-5481
▁fueran	-5482
▁fuesen	-5483
▁fértil	-5484
▁gansos	-5485
▁glotón	-5486
▁graves	-5487
▁gremio	-5488
▁gritos	-5489
▁género	-5490
▁hablan	-5491
▁habrán	-5492
▁habrás	-5493
▁hacéis	-5494
▁huerta	-5495
▁humana	-5496
▁humano	-5497
▁humill	-5498
▁imagin	-5499
▁impíos	-5500
▁inútil	-5501
▁jardín	-5502
▁jueves	-5503
▁juzgue	-5504
▁ladrón	-5505
▁largas	-5506
▁limpia	-5507
▁limpio	-5508
▁llegué	-5509
▁llenar	-5510
▁llenas	-5511
▁llenos	-5512
▁maltra	-5513
▁manjar	-5514
▁mascar	-5515
▁medida	-5516
▁mirado	-5517
▁moneda	-5518
▁mortal	-5519
▁moscas	-5520
▁mudado	-5521
▁muelas	-5522
▁mueren	-5523
▁muerta	-5524
▁multip	-5525
▁médico	-5526
▁mírale	-5527
▁nación	-5528
▁naufra	-5529
▁negros	-5530
▁noctur	-5531
▁nuevos	-5532
▁olvido	-5533
▁ovejas	-5534
▁pacífi	-5535
▁pareci	-5536
▁partir	-5537
▁partió	-5538
▁pasase	-5539
▁pasión	-5540
▁pechos	-5541
▁pedían	-5542
▁pelota	-5543
▁perdió	-5544
▁perfec	-5545
▁piense	-5546
▁piezas	-5547
▁pondré	-5548
▁ponían	-5549
▁profun	-5550
▁propor	-5551
▁quejas	-5552
▁rastro	-5553
▁recibe	-5554
▁recuer	-5555
▁reinos	-5556
▁relato	-5557
▁repite	-5558
▁resign	-5559
▁retiró	-5560
▁robado	-5561
▁rompió	-5562
▁saludó	-5563
▁selvas	-5564
▁sepáis	-5565
▁sereno	-5566
▁siesta	-5567
▁siguió	-5568
▁simple	-5569
▁subirá	-5570
▁sufrir	-5571
▁tejido	-5572
▁tendrá	-5573
▁tienda	-5574
▁través	-5575
▁traído	-5576
▁trecho	-5577
▁título	-5578
▁univer	-5579
▁varios	-5580
▁vengan	-5581
▁vengas	-5582
▁ventan	-5583
▁vienes	-5584
▁visera	-5585
▁volvía	-5586
▁vuelva	-5587
▁vuelvo	-5588
▁víbora	-5589
▁zapato	-5590
▁ámbito	-5591
▁órgano	-5592
anamente	-5593
ivamente	-5594
llamente	-5595
piración	-5596
taciones	-5597
▁Brandon	-5598
▁Cómicos	-5599
▁Enredos	-5600
▁Gonzalo	-5601
▁Ingenio	-5602
▁Palacio	-5603
▁acomodó	-5604
▁adornos	-5605
▁agravio	-5606
▁agujero	-5607
▁albarda	-5608
▁alcohol	-5609
▁alzando	-5610
▁amantes	-5611
▁andando	-5612
▁andrada	-5613
▁antigua	-5614
▁aparato	-5615
▁aprieto	-5616
▁armería	-5617
▁asiento	-5618
▁asisten	-5619
▁atrevió	-5620
▁atónito	-5621
▁bajaron	-5622
▁barbero	-5623
▁bigotes	-5624
▁bodelei	-5625
▁busques	-5626
▁canción	-5627
▁capataz	-5628
▁carreta	-5629
▁casarse	-5630
▁cerrada	-5631
▁cerrará	-5632
▁circuns	-5633
▁colegio	-5634
▁colgado	-5635
▁combate	-5636
▁compens	-5637
▁comprar	-5638
▁conduce	-5639
▁conform	-5640
▁conocen	-5641
▁conoces	-5642
▁constru	-5643
▁cortado	-5644
▁costado	-5645
▁curarse	-5646
▁debiera	-5647
▁decirle	-5648
▁dejamos	-5649
▁dejarse	-5650
▁dejaste	-5651
▁demanda	-5652
▁desafío	-5653
▁descans	-5654
▁detener	-5655
▁detenía	-5656
▁devorar	-5657
▁dijiste	-5658
▁dirigió	-5659
▁dispone	-5660
▁dominar	-5661
▁doradas	-5662
▁dádivas	-5663
▁encanta	-5664
▁encanto	-5665
▁encantó	-5666
▁encomen	-5667
▁enrique	-5668
▁enseñar	-5669
▁español	-5670
▁estaría	-5671
▁estudio	-5672
▁estéril	-5673
▁fleming	-5674
▁fortifi	-5675
▁forzoso	-5676
▁frescas	-5677
▁gusanos	-5678
▁haberla	-5679
▁haberme	-5680
▁habréis	-5681
▁hacerse	-5682
▁heredad	-5683
▁hiciere	-5684
▁hiciste	-5685
▁hierbas	-5686
▁hundido	-5687
▁igualar	-5688
▁imposib	-5689
▁jangada	-5690
▁jornada	-5691
▁ladrido	-5692
▁letanía	-5693
▁linajes	-5694
▁llamada	-5695
▁llevará	-5696
▁locuras	-5697
▁límites	-5698
▁manifes	-5699
▁matrona	-5700
▁mañanas	-5701
▁melancó	-5702
▁melindr	-5703
▁milagro	-5704
▁monstru	-5705
▁morisco	-5706
▁mostrar	-5707
▁mudanza	-5708
▁muertas	-5709
▁muestre	-5710
▁médicos	-5711
▁novedad	-5712
▁ocupado	-5713
▁ordinar	-5714
▁oscuros	-5715
▁pagador	-5716
▁pañuelo	-5717
▁permite	-5718
▁pescado	-5719
▁piadoso	-5720
▁pintada	-5721
▁princes	-5722
▁propias	-5723
▁pruebas	-5724
▁pusiese	-5725
▁pusiste	-5726
▁público	-5727
▁quinina	-5728
▁quédese	-5729
▁recogió	-5730
▁referir	-5731
▁rendido	-5732
▁repitió	-5733
▁retrato	-5734
▁reveses	-5735
▁rostros	-5736
▁rústica	-5737
▁satisfa	-5738
▁seguían	-5739
▁sentase	-5740
▁servirá	-5741
▁servían	-5742
▁señoras	-5743
▁sientes	-5744
▁siervos	-5745
▁soldado	-5746
▁soledad	-5747
▁solitar	-5748
▁sujetos	-5749
▁supiese	-5750
▁tambale	-5751
▁teatros	-5752
▁tercero	-5753
▁tesoros	-5754
▁tiernos	-5755
▁tierras	-5756
▁tirones	-5757
▁tocando	-5758
▁tomando	-5759
▁trasqui	-5760
▁triunfo	-5761
▁tuviese	-5762
▁tuvimos	-5763
▁túnicas	-5764
▁vanidad	-5765
▁vigilia	-5766
▁viniera	-5767
▁volvían	-5768
▁vueltas	-5769
▁Ambrosio	-5770
▁Consuelo	-5771
▁Gallardo	-5772
▁Redentor	-5773
▁Zaragoza	-5774
▁abiertas	-5775
▁acomodar	-5776
▁animales	-5777
▁aposento	-5778
▁apostaré	-5779
▁arrastra	-5780
▁ausencia	-5781
▁bailando	-5782
▁bolsillo	-5783
▁borracho	-5784
▁buscarle	-5785
▁caliente	-5786
▁cariñoso	-5787
▁cascabel	-5788
▁celebrar	-5789
▁ciencias	-5790
▁ciudades	-5791
▁clarines	-5792
▁cocinero	-5793
▁columnas	-5794
▁combates	-5795
▁comenzar	-5796
▁comieron	-5797
▁consenti	-5798
▁contacto	-5799
▁contarla	-5800
▁conviene	-5801
▁cordales	-5802
▁cortezas	-5803
▁creyendo	-5804
▁cuatitos	-5805
▁cuchillo	-5806
▁cumplido	-5807
▁deleitar	-5808
▁demostra	-5809
▁desenfad	-5810
▁desenvol	-5811
▁desierto	-5812
▁despecho	-5813
▁devolver	-5814
▁dignidad	-5815
▁director	-5816
▁dragones	-5817
▁elegante	-5818
▁empapado	-5819
▁encerrar	-5820
▁encontra	-5821
▁engañado	-5822
▁entraron	-5823
▁entusias	-5824
▁esconder	-5825
▁escopeta	-5826
▁escribió	-5827
▁escuchan	-5828
▁especial	-5829
▁esperado	-5830
▁estancia	-5831
▁estómago	-5832
▁extrañas	-5833
▁hacerlas	-5834
▁hacernos	-5835
▁hacienda	-5836
▁hogueras	-5837
▁honrados	-5838
▁incorpor	-5839
▁infierno	-5840
▁infortun	-5841
▁lanzando	-5842
▁lanzarse	-5843
▁llamarás	-5844
▁llegando	-5845
▁llegaría	-5846
▁lágrimas	-5847
▁mandaron	-5848
▁miembros	-5849
▁misiones	-5850
▁mostrado	-5851
▁multitud	-5852
▁necesita	-5853
▁ofrecido	-5854
▁parecían	-5855
▁pensamos	-5856
▁pequeños	-5857
▁perpetua	-5858
▁poniendo	-5859
▁prefería	-5860
▁primeros	-5861
▁promesas	-5862
▁prudente	-5863
▁publicar	-5864
▁pudiesen	-5865
▁quebrada	-5866
▁quijotes	-5867
▁quitarme	-5868
▁rebelión	-5869
▁recorrió	-5870
▁regoldar	-5871
▁remolino	-5872
▁rendidos	-5873
▁respirar	-5874
▁rincones	-5875
▁rodillas	-5876
▁saltando	-5877
▁santidad	-5878
▁secretos	-5879
▁segundos	-5880
▁sentaron	-5881
▁servirán	-5882
▁socorrer	-5883
▁soldados	-5884
▁subieron	-5885
▁suspiros	-5886
▁sustenta	-5887
▁sustento	-5888
▁tacuaras	-5889
▁temiendo	-5890
▁trabajes	-5891
▁trastorn	-5892
▁tuviesen	-5893
▁valentía	-5894
▁volverse	-5895
▁zumbando	-5896
▁Andalucía	-5897
▁Barcelona	-5898
▁Guillermo	-5899
▁acercarse	-5900
▁acompañar	-5901
▁amistades	-5902
▁arrojando	-5903
▁atardecer	-5904
▁aumentaba	-5905
▁averiguar	-5906
▁bolsillos	-5907
▁camborios	-5908
▁carcajada	-5909
▁comodidad	-5910
▁compuesto	-5911
▁concierto	-5912
▁conocerle	-5913
▁consintió	-5914
▁contenido	-5915
▁contentos	-5916
▁contienen	-5917
▁corazones	-5918
▁coyuntura	-5919
▁cristiana	-5920
▁cuartillo	-5921
▁demasiado	-5922
▁desagrade	-5923
▁descalzos	-5924
▁descubrir	-5925
▁desviados	-5926
▁detenerse	-5927
▁diciembre	-5928
▁discretas	-5929
▁disparaba	-5930
▁enterrado	-5931
▁espacioso	-5932
▁estrechas	-5933
▁estruendo	-5934
▁estuviera	-5935
▁eternidad	-5936
▁farolillo	-5937
▁fortaleza	-5938
▁ignoraban	-5939
▁inmóviles	-5940
▁invención	-5941
▁juramento	-5942
▁lamentaba	-5943
▁levantada	-5944
▁levantado	-5945
▁peregrino	-5946
▁permanece	-5947
▁porcelana	-5948
▁presencia	-5949
▁principal	-5950
▁prometido	-5951
▁realmente	-5952
▁recibirle	-5953
▁referidos	-5954
▁respuesta	-5955
▁revueltos	-5956
▁sepultura	-5957
▁servicios	-5958
▁siguiendo	-5959
▁temblando	-5960
▁tendencia	-5961
▁tranquilo	-5962
▁venerable	-5963
▁venturoso	-5964
▁vergüenza	-5965
▁zoológico	-5966
▁Crisóstomo	-5967
▁abundancia	-5968
▁alborotado	-5969
▁alucinante	-5970
▁blasfemias	-5971
▁carcajadas	-5972
▁cascarudos	-5973
▁casualidad	-5974
▁claramente	-5975
▁comprendió	-5976
▁convidados	-5977
▁cristianas	-5978
▁curiosidad	-5979
▁detuvieron	-5980
▁diferentes	-5981
▁dificultad	-5982
▁disparates	-5983
▁documentos	-5984
▁encantador	-5985
▁encontrado	-5986
▁endiablada	-5987
▁enviándole	-5988
▁fantástica	-5989
▁grandísima	-5990
▁grisostomo	-5991
▁grisóstomo	-5992
▁imprimiera	-5993
▁intitulado	-5994
▁lentamente	-5995
▁ordenanzas	-5996
▁permanecía	-5997
▁principios	-5998
▁prisionero	-5999
▁suspensión	-6000
▁testamento	-6001
▁acogimiento	-6002
▁aconsejarte	-6003
▁aposentador	-6004
▁diciéndoles	-6005
▁disposición	-6006
▁enredaderas	-6007
▁entendieron	-6008
▁herramienta	-6009
▁iniquidades	-6010
▁interrumpió	-6011
▁liberalidad	-6012
▁muchedumbre	-6013
▁necesidades	-6014
▁necesitados	-6015
▁presbiterio	-6016
▁prometiendo	-6017
▁seguramente	-6018
▁simplicidad	-6019
▁solicitudes	-6020
▁Buenaventura	-6021
▁acostumbrado	-6022
▁inteligencia	-6023
▁menesterosos	-6024
▁recogimiento	-6025
▁transformado	-6026
▁inconveniente	-6027
▁ofrecimientos	-6028
▁acompañamiento	-6029
▁demasiadamente	-6030
▁encantamientos	-6031
▁extraordinaria	-6032
10	-6033
40	-6034
ac	-6035
ay	-6036
eb	-6037
ff	-6038
gn	-6039
if	-6040
ks	-6041
mu	-6042
ob	-6043
oc	-6044
ow	-6045
ys	-6046
ác	-6047
éx	-6048
éñ	-6049
íz	-6050
üe	-6051
▁x	-6052
▁É	-6053
ajo	-6054
amp	-6055
and	-6056
asi	-6057
bam	-6058
bin	-6059
chó	-6060
clo	-6061
cón	-6062
day	-6063
dis	-6064
dme	-6065
dre	-6066
ean	-6067
eas	-6068
efe	-6069
enw	-6070
enz	-6071
feo	-6072
fri	-6073
gam	-6074
gio	-6075
hom	-6076
hor	-6077
ica	-6078
idu	-6079
irv	-6080
ish	-6081
jad	-6082
jui	-6083
lad	-6084
laz	-6085
leo	-6086
lid	-6087
lom	-6088
mán	-6089
ose	-6090
pús	-6091
rid	-6092
tel	-6093
tmi	-6094
tmo	-6095
tén	-6096
tío	-6097
tís	-6098
ung	-6099
cú	-6100
já	-6101
ok	-6102
dís	-6103
jin	-6104
liz	-6105
nia	-6106
unu	-6107
upe	-6108
uél	-6109
uén	-6110
veg	-6111
yan	-6112
zgo	-6113
zás	-6114
éce	-6115
ñar	-6116
óli	-6117
▁22	-6118
▁34	-6119
▁55	-6120
▁65	-6121
▁Ac	-6122
▁Ap	-6123
▁Ce	-6124
▁Li	-6125
▁Or	-6126
▁Pé	-6127
▁Ri	-6128
▁bu	-6129
▁fo	-6130
▁ló	-6131
▁my	-6132
▁mó	-6133
▁pé	-6134
▁rá	-6135
▁vá	-6136
▁ás	-6137
▁éx	-6138
ablo	-6139
afir	-6140
anar	-6141
ango	-6142
asco	-6143
bida	-6144
chón	-6145
cico	-6146
ctos	-6147
cuas	-6148
cula	-6149
dall	-6150
daos	-6151
dase	-6152
deró	-6153
dios	-6154
dita	-6155
diós	-6156
dona	-6157
dosa	-6158
eada	-6159
eado	-6160
ebre	-6161
echa	-6162
edas	-6163
egún	-6164
ejas	-6165
enme	-6166
erna	-6167
erte	-6168
eses	-6169
etas	-6170
etre	-6171
frío	-6172
gale	-6173
gata	-6174
grar	-6175
guay	-6176
guye	-6177
icos	-6178
ieca	-6179
iere	-6180
ieza	-6181
igon	-6182
ilar	-6183
into	-6184
iosa	-6185
ique	-6186
ista	-6187
itan	-6188
jaré	-6189
jate	-6190
joso	-6191
laus	-6192
lish	-6193
lleo	-6194
locu	-6195
lona	-6196
mate	-6197
nado	-6198
olla	-6199
mul	-6200
rul	-6201
dría	-6202
enzo	-6203
fiar	-6204
omía	-6205
onar	-6206
onia	-6207
onía	-6208
orra	-6209
oses	-6210
peak	-6211
pelo	-6212
rame	-6213
rate	-6214
rico	-6215
riga	-6216
rime	-6217
rite	-6218
rote	-6219
rupo	-6220
sola	-6221
tand	-6222
teri	-6223
tigu	-6224
tios	-6225
tiri	-6226
tizo	-6227
trio	-6228
ucho	-6229
uedo	-6230
uena	-6231
ulta	-6232
unde	-6233
untu	-6234
usia	-6235
vaba	-6236
vada	-6237
vari	-6238
very	-6239
volo	-6240
yase	-6241
zara	-6242
ázar	-6243
érte	-6244
íden	-6245
ídos	-6246
▁000	-6247
▁And	-6248
▁Bús	-6249
▁Cle	-6250
▁Cre	-6251
▁Due	-6252
▁Era	-6253
▁Fir	-6254
▁Gru	-6255
▁Lan	-6256
▁Lig	-6257
▁Lor	-6258
▁Luz	-6259
▁Mal	-6260
▁Méx	-6261
▁Pan	-6262
▁Sab	-6263
▁Sar	-6264
▁Son	-6265
▁Sus	-6266
▁Tra	-6267
▁Vil	-6268
▁Vir	-6269
▁aci	-6270
▁aga	-6271
▁ala	-6272
▁alf	-6273
▁alz	-6274
▁alé	-6275
▁amó	-6276
▁aul	-6277
▁bañ	-6278
▁blo	-6279
▁bul	-6280
▁ces	-6281
▁cue	-6282
▁cár	-6283
▁cés	-6284
▁dañ	-6285
▁dep	-6286
▁dic	-6287
▁esg	-6288
▁fas	-6289
▁fre	-6290
▁fri	-6291
▁fué	-6292
▁ger	-6293
▁gin	-6294
▁hij	-6295
▁hil	-6296
▁hip	-6297
▁ira	-6298
▁lam	-6299
▁19	-6300
▁Bo	-6301
▁Ru	-6302
ampa	-6303
bano	-6304
ecen	-6305
egas	-6306
elle	-6307
jeme	-6308
jeza	-6309
lará	-6310
leño	-6311
vate	-6312
zura	-6313
▁Bro	-6314
▁Del	-6315
▁Hér	-6316
▁Tam	-6317
▁Ten	-6318
▁ahi	-6319
▁lea	-6320
▁lev	-6321
▁lie	-6322
▁lis	-6323
▁llé	-6324
▁lun	-6325
▁oci	-6326
▁oje	-6327
▁oji	-6328
▁oso	-6329
▁pom	-6330
▁pró	-6331
▁pup	-6332
▁ray	-6333
▁reg	-6334
▁ria	-6335
▁taj	-6336
▁tib	-6337
▁toc	-6338
▁usa	-6339
▁vil	-6340
abaza	-6341
abaña	-6342
aldad	-6343
aldas	-6344
ampag	-6345
bería	-6346
bidas	-6347
bispo	-6348
bitos	-6349
bores	-6350
braba	-6351
brego	-6352
caras	-6353
cedía	-6354
cenas	-6355
cería	-6356
chosa	-6357
cidos	-6358
cogió	-6359
cules	-6360
culos	-6361
dasen	-6362
deces	-6363
deley	-6364
dimos	-6365
driño	-6366
empos	-6367
enado	-6368
encio	-6369
enway	-6370
erado	-6371
ergía	-6372
ezada	-6373
ezoso	-6374
ferir	-6375
gaban	-6376
gales	-6377
guete	-6378
gular	-6379
guían	-6380
ición	-6381
igado	-6382
inojo	-6383
inoso	-6384
iosas	-6385
izada	-6386
jados	-6387
jando	-6388
jarse	-6389
jería	-6390
lanca	-6391
liqui	-6392
llejo	-6393
mados	-6394
mones	-6395
ompos	-6396
onios	-6397
orado	-6398
orios	-6399
ruj	-6400
rup	-6401
vío	-6402
óso	-6403
▁Ne	-6404
curú	-6405
drío	-6406
gáis	-6407
lina	-6408
tina	-6409
tumb	-6410
▁Hab	-6411
▁Nin	-6412
bamos	-6413
logía	-6414
midas	-6415
padas	-6416
peras	-6417
petas	-6418
quial	-6419
quino	-6420
quísi	-6421
radas	-6422
ragua	-6423
rales	-6424
reras	-6425
resas	-6426
resen	-6427
ridos	-6428
riese	-6429
rugas	-6430
sivas	-6431
tales	-6432
taran	-6433
tario	-6434
tasis	-6435
tavos	-6436
teles	-6437
terna	-6438
tiada	-6439
tidos	-6440
tiese	-6441
tista	-6442
titas	-6443
torio	-6444
trase	-6445
trina	-6446
trión	-6447
untos	-6448
vador	-6449
verso	-6450
viles	-6451
vista	-6452
viste	-6453
yendo	-6454
zaban	-6455
ándal	-6456
ñados	-6457
ómico	-6458
ómito	-6459
ómodo	-6460
óstol	-6461
▁1500	-6462
▁Cure	-6463
▁Deja	-6464
▁Fuer	-6465
▁Gota	-6466
▁Hora	-6467
▁Llan	-6468
▁Rico	-6469
▁Sara	-6470
▁Sayo	-6471
▁Tris	-6472
▁Truj	-6473
▁abad	-6474
▁acei	-6475
▁ader	-6476
▁ados	-6477
▁agas	-6478
▁alam	-6479
▁albe	-6480
▁alti	-6481
▁alzó	-6482
▁anci	-6483
▁ando	-6484
▁anfi	-6485
▁arde	-6486
▁armó	-6487
▁asol	-6488
▁aspe	-6489
▁ayud	-6490
▁bara	-6491
▁boda	-6492
▁báil	-6493
▁caen	-6494
▁caja	-6495
▁carg	-6496
▁carn	-6497
▁caza	-6498
▁chir	-6499
▁Fa	-6500
▁Hu	-6501
capa	-6502
gren	-6503
mula	-6504
▁Hel	-6505
▁Hon	-6506
▁afe	-6507
▁agi	-6508
▁lín	-6509
ereza	-6510
erren	-6511
gento	-6512
gidos	-6513
guido	-6514
tanás	-6515
▁Haci	-6516
▁Lago	-6517
▁Paso	-6518
▁Sión	-6519
▁codo	-6520
▁cogi	-6521
▁crea	-6522
▁cree	-6523
▁creó	-6524
▁cáps	-6525
▁dada	-6526
▁dale	-6527
▁dará	-6528
▁debo	-6529
▁dejo	-6530
▁desv	-6531
▁dies	-6532
▁divi	-6533
▁down	-6534
▁encu	-6535
▁ende	-6536
▁equi	-6537
▁fino	-6538
▁flan	-6539
▁gano	-6540
▁gros	-6541
▁guis	-6542
▁have	-6543
▁hero	-6544
▁horm	-6545
▁huel	-6546
▁infe	-6547
▁invi	-6548
▁irri	-6549
▁júbi	-6550
▁lana	-6551
▁lava	-6552
▁leve	-6553
▁león	-6554
▁livi	-6555
▁loca	-6556
▁lodo	-6557
▁luen	-6558
▁lujo	-6559
▁mali	-6560
▁mata	-6561
▁meta	-6562
▁meti	-6563
▁morn	-6564
▁míos	-6565
▁nace	-6566
▁notó	-6567
▁obis	-6568
▁oirá	-6569
▁olla	-6570
▁orgu	-6571
▁oían	-6572
▁oída	-6573
▁paja	-6574
▁pasé	-6575
▁pata	-6576
▁pava	-6577
▁pavi	-6578
▁peni	-6579
▁peor	-6580
▁pern	-6581
▁pesc	-6582
▁pese	-6583
▁piel	-6584
▁piol	-6585
▁plie	-6586
▁pond	-6587
▁pozo	-6588
▁prem	-6589
▁quie	-6590
▁quim	-6591
▁quit	-6592
▁rara	-6593
▁raro	-6594
▁rayo	-6595
▁rech	-6596
▁remi	-6597
▁repu	-6598
▁reta	-6599
xim	-6600
▁66	-6601
▁Os	-6602
▁ur	-6603
emin	-6604
emán	-6605
embra	-6606
ervar	-6607
tirme	-6608
tirpe	-6609
tismo	-6610
tándo	-6611
uroso	-6612
uvios	-6613
▁agre	-6614
▁arañ	-6615
▁frau	-6616
▁metá	-6617
▁reía	-6618
▁robo	-6619
▁roda	-6620
▁rojo	-6621
▁roto	-6622
▁rufi	-6623
▁sane	-6624
▁sial	-6625
▁siam	-6626
▁soga	-6627
▁soso	-6628
▁suma	-6629
▁sáti	-6630
▁tema	-6631
▁teme	-6632
▁tina	-6633
▁tiri	-6634
▁tocó	-6635
▁tome	-6636
▁tren	-6637
▁trop	-6638
▁tuya	-6639
▁vado	-6640
▁vago	-6641
▁vais	-6642
▁vara	-6643
▁vaso	-6644
▁vill	-6645
▁yugo	-6646
▁zona	-6647
▁éste	-6648
adreja	-6649
afiros	-6650
alible	-6651
amento	-6652
aminar	-6653
ardino	-6654
brando	-6655
bujado	-6656
catado	-6657
chados	-6658
chosas	-6659
cistas	-6660
curaba	-6661
dalgos	-6662
egados	-6663
egando	-6664
elasco	-6665
endito	-6666
ficios	-6667
güento	-6668
ilando	-6669
inadas	-6670
inales	-6671
inebra	-6672
iremos	-6673
istrar	-6674
juicio	-6675
lantes	-6676
luvios	-6677
mortal	-6678
omenda	-6679
osofía	-6680
ostura	-6681
pelado	-6682
pirare	-6683
quedad	-6684
quidas	-6685
quitos	-6686
render	-6687
rentes	-6688
ribles	-6689
tables	-6690
tenece	-6691
trarse	-6692
tísimo	-6693
uieron	-6694
urando	-6695
venido	-6696
ísimos	-6697
ólogos	-6698
▁Bueno	-6699
▁53	-6700
beda	-6701
calá	-6702
come	-6703
imul	-6704
izon	-6705
▁400	-6706
▁You	-6707
ameda	-6708
donos	-6709
jenme	-6710
minar	-6711
titud	-6712
vitud	-6713
▁bord	-6714
▁duró	-6715
▁econ	-6716
▁fron	-6717
▁héro	-6718
▁pucú	-6719
endida	-6720
▁Busca	-6721
▁Casil	-6722
▁Comen	-6723
▁Donde	-6724
▁Entre	-6725
▁Estas	-6726
▁Estre	-6727
▁Ingla	-6728
▁Islas	-6729
▁Luego	-6730
▁Mando	-6731
▁Ollas	-6732
▁Otero	-6733
▁Rusia	-6734
▁Silla	-6735
▁Stand	-6736
▁Valle	-6737
▁Villa	-6738
▁abril	-6739
▁acces	-6740
▁advir	-6741
▁agasa	-6742
▁aguja	-6743
▁ajeno	-6744
▁alejó	-6745
▁allan	-6746
▁alqui	-6747
▁altan	-6748
▁ambas	-6749
▁amiga	-6750
▁ancas	-6751
▁ancha	-6752
▁andam	-6753
▁apear	-6754
▁ardía	-6755
▁arena	-6756
▁asque	-6757
▁atado	-6758
▁ataúd	-6759
▁añado	-6760
▁bajar	-6761
▁basti	-6762
▁bicho	-6763
▁bocas	-6764
▁bolos	-6765
▁botes	-6766
▁busca	-6767
▁caber	-6768
▁cabía	-6769
▁caerá	-6770
▁calen	-6771
▁camel	-6772
▁campe	-6773
▁cance	-6774
▁carre	-6775
▁carác	-6776
▁casco	-6777
▁casta	-6778
▁cauce	-6779
▁caían	-6780
▁celos	-6781
▁cerem	-6782
▁cerro	-6783
▁ciego	-6784
▁cinta	-6785
▁civil	-6786
▁cober	-6787
▁coche	-6788
▁comas	-6789
▁comis	-6790
▁compa	-6791
▁compe	-6792
▁conca	-6793
▁congo	-6794
▁consa	-6795
▁copia	-6796
▁cordi	-6797
▁corto	-6798
▁creyó	-6799
▁54	-6800
▁56	-6801
ureo	-6802
astel	-6803
▁auto	-6804
▁bajé	-6805
▁flau	-6806
▁huir	-6807
▁raso	-6808
císimo	-6809
dedura	-6810
dísimo	-6811
manera	-6812
quinas	-6813
▁Peñas	-6814
▁arreg	-6815
▁besos	-6816
▁castí	-6817
▁cubre	-6818
▁curso	-6819
▁cuyos	-6820
▁darla	-6821
▁decor	-6822
▁decre	-6823
▁depar	-6824
▁despi	-6825
▁desti	-6826
▁digno	-6827
▁disip	-6828
▁dispu	-6829
▁diste	-6830
▁doblo	-6831
▁echan	-6832
▁embro	-6833
▁empez	-6834
▁empla	-6835
▁emple	-6836
▁encom	-6837
▁ensor	-6838
▁enven	-6839
▁envol	-6840
▁escol	-6841
▁espec	-6842
▁esqui	-6843
▁ester	-6844
▁estri	-6845
▁excep	-6846
▁exces	-6847
▁facul	-6848
▁fatal	-6849
▁fecha	-6850
▁fiera	-6851
▁filos	-6852
▁floja	-6853
▁fulgu	-6854
▁furia	-6855
▁ganar	-6856
▁ganas	-6857
▁garci	-6858
▁glori	-6859
▁gozar	-6860
▁grita	-6861
▁grito	-6862
▁grupo	-6863
▁gustó	-6864
▁hacha	-6865
▁hagas	-6866
▁harán	-6867
▁hinch	-6868
▁hogar	-6869
▁hondo	-6870
▁hueco	-6871
▁hábil	-6872
▁héroe	-6873
▁impon	-6874
▁insig	-6875
▁invis	-6876
▁joyas	-6877
▁juego	-6878
▁junta	-6879
▁juven	-6880
▁lagar	-6881
▁lagos	-6882
▁latín	-6883
▁lecho	-6884
▁licor	-6885
▁liter	-6886
▁local	-6887
▁losas	-6888
▁lucha	-6889
▁males	-6890
▁manse	-6891
▁manta	-6892
▁mares	-6893
▁mates	-6894
▁mesmo	-6895
▁metal	-6896
▁meter	-6897
▁metió	-6898
▁migas	-6899
▁up	-6900
ícil	-6901
▁750	-6902
▁wor	-6903
cillo	-6904
idura	-6905
▁Ayer	-6906
▁ajus	-6907
▁jugó	-6908
▁olfa	-6909
▁sopl	-6910
ecería	-6911
inetes	-6912
umbrar	-6913
▁Brown	-6914
▁Hilos	-6915
▁arcab	-6916
▁capaz	-6917
▁cecil	-6918
▁gaula	-6919
▁monas	-6920
▁movía	-6921
▁mozos	-6922
▁nacen	-6923
▁naveg	-6924
▁necio	-6925
▁nudos	-6926
▁obrar	-6927
▁ocurr	-6928
▁ondas	-6929
▁otoño	-6930
▁palas	-6931
▁palmo	-6932
▁parro	-6933
▁partí	-6934
▁patas	-6935
▁peleé	-6936
▁pensé	-6937
▁perdi	-6938
▁pesos	-6939
▁peñas	-6940
▁picos	-6941
▁piden	-6942
▁podre	-6943
▁pompa	-6944
▁ponen	-6945
▁porro	-6946
▁prema	-6947
▁preso	-6948
▁presu	-6949
▁prima	-6950
▁primo	-6951
▁prisa	-6952
▁proce	-6953
▁produ	-6954
▁quita	-6955
▁quito	-6956
▁rajas	-6957
▁raton	-6958
▁reemp	-6959
▁refle	-6960
▁reino	-6961
▁reman	-6962
▁renun	-6963
▁resul	-6964
▁retor	-6965
▁reven	-6966
▁riego	-6967
▁ritmo	-6968
▁rival	-6969
▁riñas	-6970
▁robar	-6971
▁rompe	-6972
▁ronca	-6973
▁ronda	-6974
▁rubor	-6975
▁sabré	-6976
▁sagra	-6977
▁salgo	-6978
▁salta	-6979
▁salvo	-6980
▁santu	-6981
▁sapos	-6982
▁saque	-6983
▁savia	-6984
▁sensi	-6985
▁sepas	-6986
▁sigue	-6987
▁solas	-6988
▁sonsa	-6989
▁sopla	-6990
▁sordo	-6991
▁susur	-6992
▁talad	-6993
▁tanda	-6994
▁telas	-6995
▁temas	-6996
▁teneb	-6997
▁tentó	-6998
▁tirar	-6999
legí	-7000
luce	-7001
▁800	-7002
▁The	-7003
▁sáb	-7004
geles	-7005
▁Desp	-7006
▁León	-7007
▁cohe	-7008
▁rápi	-7009
eleste	-7010
legios	-7011
▁Judas	-7012
▁atien	-7013
▁flaca	-7014
▁flaco	-7015
▁ilegí	-7016
▁inicu	-7017
▁laure	-7018
▁linda	-7019
▁mensu	-7020
▁oíste	-7021
▁papel	-7022
▁paseo	-7023
▁perdí	-7024
▁quizá	-7025
▁raras	-7026
▁riñen	-7027
▁sorda	-7028
▁tiras	-7029
▁tiros	-7030
▁tocar	-7031
▁toled	-7032
▁toman	-7033
▁toque	-7034
▁torna	-7035
▁torpe	-7036
▁torre	-7037
▁total	-7038
▁traga	-7039
▁trapi	-7040
▁trato	-7041
▁trató	-7042
▁trono	-7043
▁tropa	-7044
▁trota	-7045
▁trujo	-7046
▁vales	-7047
▁varon	-7048
▁vasos	-7049
▁vayas	-7050
▁vendi	-7051
▁verme	-7052
▁verso	-7053
▁verán	-7054
▁vivas	-7055
▁vuesa	-7056
▁zumba	-7057
▁Ángel	-7058
▁úbeda	-7059
ampagne	-7060
cabable	-7061
cciones	-7062
ciantes	-7063
ciopelo	-7064
derezar	-7065
endidos	-7066
ficarán	-7067
gitivos	-7068
iciando	-7069
idencia	-7070
imiento	-7071
inación	-7072
inarias	-7073
mbrando	-7074
mentado	-7075
minable	-7076
quilleo	-7077
quisimo	-7078
tadores	-7079
terioso	-7080
tiempos	-7081
tureros	-7082
uéntame	-7083
ándolos	-7084
éndonos	-7085
▁Alcalá	-7086
▁Alejan	-7087
▁Blanca	-7088
▁Contra	-7089
▁Cuándo	-7090
▁Fragua	-7091
▁Gobern	-7092
▁Patria	-7093
▁Perlas	-7094
▁Prados	-7095
▁Quiero	-7096
▁Romero	-7097
▁Virgil	-7098
▁abrazó	-7099
▁Char	-7100
▁robó	-7101
▁aleja	-7102
▁ampar	-7103
▁argel	-7104
▁balas	-7105
▁breve	-7106
▁cruzó	-7107
▁galán	-7108
▁llenó	-7109
▁poema	-7110
isterio	-7111
▁Grande	-7112
▁Jurado	-7113
▁Verdad	-7114
▁abuelo	-7115
▁aceptó	-7116
▁acordó	-7117
▁acudió	-7118
▁adelga	-7119
▁agrade	-7120
▁ahogar	-7121
▁alegró	-7122
▁alemán	-7123
▁alzaba	-7124
▁amadís	-7125
▁amante	-7126
▁aplaus	-7127
▁aprisa	-7128
▁apurar	-7129
▁arados	-7130
▁armado	-7131
▁arreba	-7132
▁arrojó	-7133
▁atadas	-7134
▁atrevo	-7135
▁barato	-7136
▁barniz	-7137
▁bastan	-7138
▁beberé	-7139
▁bigote	-7140
▁bonita	-7141
▁brutal	-7142
▁buscan	-7143
▁cadena	-7144
▁cambió	-7145
▁campan	-7146
▁campos	-7147
▁cansan	-7148
▁carbun	-7149
▁cartas	-7150
▁casaca	-7151
▁casada	-7152
▁castañ	-7153
▁cayese	-7154
▁cebada	-7155
▁ceniza	-7156
▁cerros	-7157
▁chipas	-7158
▁cierra	-7159
▁compar	-7160
▁conden	-7161
▁corran	-7162
▁cortas	-7163
▁creado	-7164
▁crecía	-7165
▁creéis	-7166
▁creído	-7167
▁cuerdo	-7168
▁cueros	-7169
▁cuervo	-7170
▁cuidar	-7171
▁curado	-7172
▁cuñado	-7173
▁cárcel	-7174
▁debían	-7175
▁dejada	-7176
▁deline	-7177
▁desbor	-7178
▁descol	-7179
▁desigu	-7180
▁desmay	-7181
▁desmes	-7182
▁desvan	-7183
▁dieran	-7184
▁dieras	-7185
▁dioses	-7186
▁distin	-7187
▁duermo	-7188
▁duraba	-7189
▁dádiva	-7190
▁dígalo	-7191
▁embele	-7192
▁embudo	-7193
▁empero	-7194
▁empezó	-7195
▁enanos	-7196
▁encaja	-7197
▁encaje	-7198
▁enfría	-7199
turno	-7200
▁Quis	-7201
▁adop	-7202
▁trep	-7203
onerme	-7204
íticas	-7205
▁Ahora	-7206
▁agota	-7207
▁conju	-7208
▁cruel	-7209
▁llaga	-7210
▁soñol	-7211
▁umbra	-7212
quistar	-7213
umbraba	-7214
▁Madrid	-7215
▁Marfil	-7216
▁Palmas	-7217
▁afirmo	-7218
▁afirmó	-7219
▁alarga	-7220
▁dramas	-7221
▁enorme	-7222
▁entren	-7223
▁entron	-7224
▁escalo	-7225
▁escape	-7226
▁escasa	-7227
▁escogí	-7228
▁espera	-7229
▁estilo	-7230
▁estima	-7231
▁falsos	-7232
▁fatiga	-7233
▁fieras	-7234
▁fingir	-7235
▁firmar	-7236
▁fiscal	-7237
▁flecha	-7238
▁fresca	-7239
▁fresco	-7240
▁frutos	-7241
▁fuimos	-7242
▁garban	-7243
▁garras	-7244
▁gastar	-7245
▁gastos	-7246
▁grabar	-7247
▁gradas	-7248
▁gratis	-7249
▁guiaba	-7250
▁guitar	-7251
▁gustar	-7252
▁habita	-7253
▁hartar	-7254
▁herman	-7255
▁hijito	-7256
▁hocico	-7257
▁hombro	-7258
▁honrar	-7259
▁horror	-7260
▁hundió	-7261
▁impaci	-7262
▁indias	-7263
▁inscri	-7264
▁iremos	-7265
▁juntar	-7266
▁justos	-7267
▁lanzan	-7268
▁lejana	-7269
▁lejano	-7270
▁lianas	-7271
▁llamas	-7272
▁llanto	-7273
▁llaves	-7274
▁lleves	-7275
▁llorar	-7276
▁madres	-7277
▁maldad	-7278
▁mamita	-7279
▁matará	-7280
▁medall	-7281
▁medios	-7282
▁metido	-7283
▁metros	-7284
▁minuto	-7285
▁montes	-7286
▁montés	-7287
▁montón	-7288
▁morena	-7289
▁morirá	-7290
▁movido	-7291
▁muestr	-7292
▁negras	-7293
▁nietos	-7294
▁nobles	-7295
▁nueces	-7296
▁obliga	-7297
▁obligó	-7298
▁obrado	-7299
▁Déj	-7300
▁isla	-7301
tañona	-7302
▁arrul	-7303
▁ayude	-7304
▁coger	-7305
▁ideal	-7306
▁muslo	-7307
▁salvó	-7308
▁tribu	-7309
▁Santia	-7310
▁aflige	-7311
▁brillo	-7312
▁bromas	-7313
▁cambia	-7314
▁celada	-7315
▁déjeme	-7316
▁hiedra	-7317
▁hábito	-7318
▁llover	-7319
▁manteo	-7320
▁mezcla	-7321
▁mustia	-7322
▁observ	-7323
▁ocioso	-7324
▁ocupar	-7325
▁ofensa	-7326
▁olvidó	-7327
▁ordenó	-7328
▁origen	-7329
▁padece	-7330
▁pagado	-7331
▁parada	-7332
▁parana	-7333
▁pasaje	-7334
▁pasear	-7335
▁patios	-7336
▁pelean	-7337
▁peleas	-7338
▁perdía	-7339
▁pereza	-7340
▁pesaba	-7341
▁pesada	-7342
▁piados	-7343
▁pieles	-7344
▁pintan	-7345
▁pintar	-7346
▁pintas	-7347
▁platos	-7348
▁pleito	-7349
▁podrás	-7350
▁podáis	-7351
▁pondrá	-7352
▁pongas	-7353
▁posada	-7354
▁postre	-7355
▁premio	-7356
▁prepar	-7357
▁presen	-7358
▁presum	-7359
▁priesa	-7360
▁proces	-7361
▁protes	-7362
▁provee	-7363
▁provin	-7364
▁puedan	-7365
▁puedes	-7366
▁puente	-7367
▁puerto	-7368
▁pulgar	-7369
▁puntas	-7370
▁quieta	-7371
▁quinta	-7372
▁quitan	-7373
▁recato	-7374
▁rendir	-7375
▁reserv	-7376
▁retiro	-7377
▁retumb	-7378
▁riacho	-7379
▁ricota	-7380
▁rienda	-7381
▁rincón	-7382
▁romper	-7383
▁rubios	-7384
▁sabidu	-7385
▁sacado	-7386
▁salgan	-7387
▁sanaré	-7388
▁sangra	-7389
▁sienta	-7390
▁siente	-7391
▁sillas	-7392
▁sirven	-7393
▁social	-7394
▁sopena	-7395
▁subido	-7396
▁sucede	-7397
▁suelta	-7398
▁sufrió	-7399
▁clé	-7400
colía	-7401
ralda	-7402
rindo	-7403
▁Arro	-7404
▁Iván	-7405
▁ilum	-7406
tedral	-7407
éramos	-7408
▁Foras	-7409
▁Quizá	-7410
▁arzon	-7411
▁house	-7412
▁leván	-7413
▁mulli	-7414
▁posee	-7415
▁regla	-7416
▁siega	-7417
▁timón	-7418
▁tornó	-7419
▁vidri	-7420
▁Brindo	-7421
▁Cupido	-7422
▁Homero	-7423
▁Puerto	-7424
▁campea	-7425
▁fierro	-7426
▁lujoso	-7427
▁obispo	-7428
▁revela	-7429
▁suposi	-7430
▁tabaco	-7431
▁tacuru	-7432
▁tacurú	-7433
▁tallar	-7434
▁tardar	-7435
▁tardes	-7436
▁techos	-7437
▁tengan	-7438
▁tengas	-7439
▁termin	-7440
▁terror	-7441
▁tomado	-7442
▁torpes	-7443
▁traeré	-7444
▁trajes	-7445
▁trapos	-7446
▁traída	-7447
▁tripas	-7448
▁trofeo	-7449
▁tropas	-7450
▁turbam	-7451
▁turban	-7452
▁turbar	-7453
▁turrón	-7454
▁valles	-7455
▁venció	-7456
▁vengar	-7457
▁verlos	-7458
▁verter	-7459
▁veréis	-7460
▁vicios	-7461
▁vivirá	-7462
▁volaba	-7463
▁vuelan	-7464
▁vómito	-7465
▁yeguas	-7466
▁échese	-7467
asionado	-7468
enciones	-7469
ferentes	-7470
olvieron	-7471
parentes	-7472
preciado	-7473
ramiento	-7474
teadores	-7475
udamente	-7476
vinieron	-7477
viéndose	-7478
▁Bendito	-7479
▁Cordero	-7480
▁Déjenme	-7481
▁Francis	-7482
▁Lorenzo	-7483
▁Nuestro	-7484
▁Quiénes	-7485
▁Satanás	-7486
▁Saturno	-7487
▁Sevilla	-7488
▁Vallado	-7489
▁Villano	-7490
▁Violeta	-7491
▁abanico	-7492
▁abierta	-7493
▁abismos	-7494
▁abrazan	-7495
▁abrazos	-7496
▁acertar	-7497
▁acordar	-7498
▁acosado	-7499
▁yuy	-7500
illez	-7501
▁Data	-7502
▁Júpi	-7503
ciende	-7504
ársela	-7505
▁Norte	-7506
▁jalar	-7507
▁niñez	-7508
▁purga	-7509
▁tonta	-7510
▁varón	-7511
▁Ánimo	-7512
codover	-7513
unciaba	-7514
▁Castel	-7515
▁Pulido	-7516
▁aborre	-7517
▁aldeas	-7518
▁alerta	-7519
▁alteza	-7520
▁apuntó	-7521
▁teñida	-7522
▁topaba	-7523
▁trueco	-7524
▁vacías	-7525
▁Celeste	-7526
▁Júpiter	-7527
▁Serrano	-7528
▁actores	-7529
▁acuesta	-7530
▁admirar	-7531
▁adornan	-7532
▁adornar	-7533
▁afirmar	-7534
▁alambre	-7535
▁alegrar	-7536
▁alturas	-7537
▁amonton	-7538
▁amoroso	-7539
▁anamita	-7540
▁andamos	-7541
▁andarán	-7542
▁anunció	-7543
▁apagado	-7544
▁apartar	-7545
▁apoyada	-7546
▁armonía	-7547
▁arrepen	-7548
▁arrulla	-7549
▁aseguro	-7550
▁asienta	-7551
▁asombro	-7552
▁ataques	-7553
▁atrever	-7554
▁aumento	-7555
▁azotado	-7556
▁azulada	-7557
▁babieca	-7558
▁bailado	-7559
▁balance	-7560
▁bandera	-7561
▁bebedor	-7562
▁bizarra	-7563
▁bizarro	-7564
▁blancos	-7565
▁bocinas	-7566
▁botones	-7567
▁báilame	-7568
▁cabello	-7569
▁calenti	-7570
▁cambiar	-7571
▁caminan	-7572
▁camisas	-7573
▁cansado	-7574
▁cantase	-7575
▁cargada	-7576
▁caridad	-7577
▁carpeta	-7578
▁casarla	-7579
▁casarme	-7580
▁cañones	-7581
▁cebolla	-7582
▁cercano	-7583
▁cerebro	-7584
▁cerrado	-7585
▁cobarde	-7586
▁colgaba	-7587
▁comedor	-7588
▁comunes	-7589
▁concern	-7590
▁conoció	-7591
▁conozca	-7592
▁consola	-7593
▁corteza	-7594
▁creyera	-7595
▁cristal	-7596
▁cuartel	-7597
▁cuentos	-7598
▁cuervos	-7599
éceme	-7600
▁inoc	-7601
▁jefe	-7602
▁maíz	-7603
▁rajá	-7604
hombre	-7605
igonza	-7606
lomado	-7607
ollaje	-7608
▁Every	-7609
▁Gruta	-7610
▁Majin	-7611
▁Pérez	-7612
▁Rango	-7613
▁Rubio	-7614
▁Según	-7615
▁enséñ	-7616
▁pedís	-7617
▁rítmi	-7618
▁speak	-7619
▁suntu	-7620
diosero	-7621
locutor	-7622
púsculo	-7623
▁Cuíden	-7624
▁Ligero	-7625
▁México	-7626
▁arguye	-7627
▁bajeza	-7628
▁cabaña	-7629
▁cúrate	-7630
▁dígale	-7631
▁filóso	-7632
▁gineta	-7633
▁hinojo	-7634
▁inerte	-7635
▁materi	-7636
▁ociosa	-7637
▁orejas	-7638
▁quizás	-7639
▁tajalí	-7640
▁villan	-7641
▁Maldito	-7642
▁También	-7643
▁alcázar	-7644
▁barriga	-7645
▁brindis	-7646
▁caletre	-7647
▁cumplan	-7648
▁curarme	-7649
▁daremos	-7650
▁debería	-7651
▁decirme	-7652
▁deciros	-7653
▁defensa	-7654
▁dejaban	-7655
▁dejadme	-7656
▁dejarle	-7657
▁dejarlo	-7658
▁dejarme	-7659
▁dejemos	-7660
▁dejémos	-7661
▁delicia	-7662
▁delirio	-7663
▁denuedo	-7664
▁derramó	-7665
▁desayun	-7666
▁deseaba	-7667
▁deseada	-7668
▁deseado	-7669
▁desgano	-7670
▁destaca	-7671
▁desvíos	-7672
▁devoras	-7673
▁dichoso	-7674
▁difícil	-7675
▁dispuso	-7676
▁dorados	-7677
▁duermas	-7678
▁duermes	-7679
▁dulzura	-7680
▁díganme	-7681
▁echados	-7682
▁echarlo	-7683
▁ejemplo	-7684
▁embuste	-7685
▁energía	-7686
▁enferma	-7687
▁enfermó	-7688
▁engañan	-7689
▁engañar	-7690
▁english	-7691
▁enseñan	-7692
▁enteros	-7693
▁entrara	-7694
▁entrase	-7695
▁entraña	-7696
▁entrete	-7697
▁equidad	-7698
▁escalón	-7699
ándalo	-7700
▁júbilo	-7701
▁Alameda	-7702
▁Ginebra	-7703
▁Horacio	-7704
▁Velasco	-7705
▁Zafiros	-7706
▁aproxim	-7707
▁apóstol	-7708
▁aspecto	-7709
▁disimul	-7710
▁escarba	-7711
▁escribe	-7712
▁escucha	-7713
▁escuchó	-7714
▁escuela	-7715
▁esgrima	-7716
▁eslabón	-7717
▁esperad	-7718
▁espesas	-7719
▁estarse	-7720
▁estatua	-7721
▁estimar	-7722
▁estirpe	-7723
▁estudia	-7724
▁excepto	-7725
▁excusas	-7726
▁existir	-7727
▁explico	-7728
▁fabricó	-7729
▁faltaba	-7730
▁favores	-7731
▁fealdad	-7732
▁flandes	-7733
▁flechas	-7734
▁follaje	-7735
▁fuentes	-7736
▁gangren	-7737
▁gatillo	-7738
▁gemidos	-7739
▁general	-7740
▁giralda	-7741
▁girando	-7742
▁gotitas	-7743
▁granito	-7744
▁gritaba	-7745
▁guerras	-7746
▁géneros	-7747
▁habitar	-7748
▁hacerme	-7749
▁haceros	-7750
▁hallare	-7751
▁hallará	-7752
▁haremos	-7753
▁heridas	-7754
▁hiciera	-7755
▁hiciese	-7756
▁hipócri	-7757
▁honesto	-7758
▁hostigo	-7759
▁humanos	-7760
▁humilde	-7761
▁humilla	-7762
▁huyendo	-7763
▁hábitos	-7764
▁impresa	-7765
▁inmedia	-7766
▁intenci	-7767
▁intento	-7768
▁interes	-7769
▁invadir	-7770
▁juguete	-7771
▁lección	-7772
▁letrado	-7773
▁liberal	-7774
▁liebres	-7775
▁limpias	-7776
▁limpios	-7777
▁llegada	-7778
▁llegaré	-7779
▁llevaré	-7780
▁lloraba	-7781
▁luminos	-7782
▁lástima	-7783
▁lóbrego	-7784
▁lúgubre	-7785
▁maderas	-7786
▁madruga	-7787
▁maestro	-7788
▁maldito	-7789
▁mamaras	-7790
▁maneras	-7791
▁martiri	-7792
▁mejorar	-7793
▁menguar	-7794
▁menores	-7795
▁mienten	-7796
▁mientes	-7797
▁miraban	-7798
▁moderna	-7799
▁mordido	-7800
▁morisca	-7801
▁morning	-7802
▁moverse	-7803
▁mudarse	-7804
▁muralla	-7805
▁móviles	-7806
▁músicas	-7807
▁nacidas	-7808
▁nombrar	-7809
▁nombres	-7810
▁notable	-7811
▁novillo	-7812
▁números	-7813
▁obispos	-7814
▁ociosos	-7815
▁ocultar	-7816
▁opuesto	-7817
▁orillas	-7818
▁pagados	-7819
▁palmera	-7820
▁palomas	-7821
▁papeles	-7822
▁paquete	-7823
▁pasaban	-7824
▁pasados	-7825
▁pasando	-7826
▁paseaba	-7827
▁pastora	-7828
▁pellejo	-7829
▁perdone	-7830
▁picando	-7831
▁pierdas	-7832
▁pilares	-7833
▁pintaba	-7834
▁pintado	-7835
▁podeley	-7836
▁poderes	-7837
▁poderle	-7838
▁podrido	-7839
▁ponerte	-7840
▁poquito	-7841
▁porfiar	-7842
▁postura	-7843
▁precipi	-7844
▁preciso	-7845
▁prevari	-7846
▁propios	-7847
▁puercos	-7848
▁puestas	-7849
▁pupilos	-7850
▁pusiera	-7851
▁quedado	-7852
▁quejaba	-7853
▁quemaba	-7854
▁querida	-7855
▁quienes	-7856
▁quiénes	-7857
▁recomen	-7858
▁redondo	-7859
▁regalar	-7860
▁reliqui	-7861
▁remonta	-7862
▁renovar	-7863
▁renuevo	-7864
▁reparto	-7865
▁retiros	-7866
▁reunión	-7867
▁riquísi	-7868
▁robusta	-7869
▁rodando	-7870
▁roncaba	-7871
▁rosario	-7872
▁ruidosa	-7873
▁ruidoso	-7874
▁ruinoso	-7875
▁rústico	-7876
▁sabemos	-7877
▁saberlo	-7878
▁sabroso	-7879
▁sabréis	-7880
▁sacaban	-7881
▁sacaran	-7882
▁saliera	-7883
▁secreto	-7884
▁semilla	-7885
▁sendero	-7886
▁sentóse	-7887
▁servida	-7888
▁señoría	-7889
▁siembra	-7890
▁sierras	-7891
▁sobrina	-7892
▁sombría	-7893
▁sonetos	-7894
▁sonrisa	-7895
▁sosiego	-7896
▁subirse	-7897
▁subiste	-7898
▁sueltos	-7899
▁sátiras	-7900
▁taberna	-7901
▁tacuara	-7902
▁talante	-7903
▁talegas	-7904
▁tardará	-7905
▁techado	-7906
▁tejados	-7907
▁temores	-7908
▁tendrán	-7909
▁tenerla	-7910
▁testigo	-7911
▁tiembla	-7912
▁tiendas	-7913
▁tiernas	-7914
▁tinajas	-7915
▁tiraban	-7916
▁tobillo	-7917
▁tocaron	-7918
▁tocinos	-7919
▁tomaría	-7920
▁trabaje	-7921
▁triunfa	-7922
▁	-7923
e	-7924
a	-7925
o	-7926
s	-7927
n	-7928
r	-7929
l	-7930
d	-7931
i	-7932
u	-7933
t	-7934
c	-7935
m	-7936
p	-7937
b	-7938
q	-7939
y	-7940
h	-7941
v	-7942
g	-7943
í	-7944
j	-7945
ó	-7946
f	-7947
á	-7948
é	-7949
z	-7950
ñ	-7951
D	-7952
S	-7953
Q	-7954
ú	-7955
M	-7956
P	-7957
C	-7958
A	-7959
E	-7960
Y	-7961
x	-7962
0	-7963
L	-7964
B	-7965
R	-7966
1	-7967
J	-7968
T	-7969
G	-7970
N	-7971
H	-7972
V	-7973
I	-7974
2	-7975
F	-7976
5	-7977
O	-7978
3	-7979
4	-7980
6	-7981
Á	-7982
k	-7983
7	-7984
8	-7985
w	-7986
U	-7987
9	-7988
ü	-7989
W	-7990
Z	-7991
$	-7992
'	-7993
-	-7994
.	-7995
É	-7996
